{
  "version": "1.0",
  "truncation": {
    "direction": "Right",
    "max_length": 40,
    "strategy": "LongestFirst",
    "stride": 0
  },
  "padding": {
    "strategy": {
      "Fixed": 40
    },
    "direction": "Right",
    "pad_to_multiple_of": null,
    "pad_id": 0,
    "pad_type_id": 0,
    "pad_token": "<PAD>"
  },
  "added_tokens": [
    {
      "id": 0,
      "content": "<PAD>",
      "single_word": false,
      "lstrip": false,
      "rstrip": false,
      "normalized": false,
      "special": true
    },
    {
      "id": 1,
      "content": "<UNK>",
      "single_word": false,
      "lstrip": false,
      "rstrip": false,
      "normalized": false,
      "special": true
    }
  ],
  "normalizer": null,
  "pre_tokenizer": {
    "type": "Whitespace"
  },
  "post_processor": null,
  "decoder": null,
  "model": {
    "type": "BPE",
    "dropout": null,
    "unk_token": "<UNK>",
    "continuing_subword_prefix": null,
    "end_of_word_suffix": null,
    "fuse_unk": false,
    "byte_fallback": false,
    "ignore_merges": false,
    "vocab": {
      "<PAD>": 0,
      "<UNK>": 1,
      "!": 2,
      "'": 3,
      ".": 4,
      "?": 5,
      "a": 6,
      "b": 7,
      "c": 8,
      "d": 9,
      "e": 10,
      "f": 11,
      "g": 12,
      "h": 13,
      "i": 14,
      "j": 15,
      "k": 16,
      "l": 17,
      "m": 18,
      "n": 19,
      "o": 20,
      "p": 21,
      "q": 22,
      "r": 23,
      "s": 24,
      "t": 25,
      "u": 26,
      "v": 27,
      "w": 28,
      "x": 29,
      "y": 30,
      "z": 31,
      "th": 32,
      "in": 33,
      "el": 34,
      "an": 35,
      "fe": 36,
      "ing": 37,
      "feel": 38,
      "re": 39,
      "the": 40,
      "at": 41,
      "ou": 42,
      "to": 43,
      "on": 44,
      "er": 45,
      "en": 46,
      "ed": 47,
      "and": 48,
      "st": 49,
      "it": 50,
      "al": 51,
      "or": 52,
      "is": 53,
      "me": 54,
      "le": 55,
      "as": 56,
      "be": 57,
      "am": 58,
      "ar": 59,
      "ve": 60,
      "of": 61,
      "feeling": 62,
      "that": 63,
      "so": 64,
      "my": 65,
      "no": 66,
      "ly": 67,
      "li": 68,
      "ha": 69,
      "wh": 70,
      "ke": 71,
      "se": 72,
      "ch": 73,
      "ti": 74,
      "ay": 75,
      "ab": 76,
      "ver": 77,
      "wi": 78,
      "es": 79,
      "lo": 80,
      "for": 81,
      "out": 82,
      "ut": 83,
      "gh": 84,
      "like": 85,
      "id": 86,
      "ac": 87,
      "mo": 88,
      "ro": 89,
      "ad": 90,
      "ld": 91,
      "ri": 92,
      "ent": 93,
      "was": 94,
      "ho": 95,
      "su": 96,
      "have": 97,
      "he": 98,
      "you": 99,
      "co": 100,
      "but": 101,
      "with": 102,
      "ll": 103,
      "un": 104,
      "this": 105,
      "do": 106,
      "ge": 107,
      "ic": 108,
      "go": 109,
      "not": 110,
      "we": 111,
      "ally": 112,
      "ust": 113,
      "ant": 114,
      "pe": 115,
      "ul": 116,
      "ca": 117,
      "ss": 118,
      "now": 119,
      "ne": 120,
      "thing": 121,
      "some": 122,
      "ght": 123,
      "one": 124,
      "about": 125,
      "ould": 126,
      "ir": 127,
      "all": 128,
      "very": 129,
      "pp": 130,
      "ion": 131,
      "just": 132,
      "ce": 133,
      "de": 134,
      "use": 135,
      "ter": 136,
      "when": 137,
      "mp": 138,
      "ous": 139,
      "ra": 140,
      "are": 141,
      "ive": 142,
      "ma": 143,
      "ful": 144,
      "con": 145,
      "us": 146,
      "ther": 147,
      "up": 148,
      "more": 149,
      "wor": 150,
      "red": 151,
      "time": 152,
      "cause": 153,
      "day": 154,
      "art": 155,
      "way": 156,
      "sel": 157,
      "ex": 158,
      "ple": 159,
      "if": 160,
      "ate": 161,
      "end": 162,
      "can": 163,
      "because": 164,
      "ur": 165,
      "get": 166,
      "nt": 167,
      "sh": 168,
      "po": 169,
      "know": 170,
      "self": 171,
      "pre": 172,
      "per": 173,
      "any": 174,
      "ry": 175,
      "king": 176,
      "ill": 177,
      "how": 178,
      "really": 179,
      "ain": 180,
      "what": 181,
      "ated": 182,
      "ind": 183,
      "ely": 184,
      "od": 185,
      "itt": 186,
      "by": 187,
      "ag": 188,
      "don": 189,
      "ough": 190,
      "been": 191,
      "want": 192,
      "tt": 193,
      "ct": 194,
      "ev": 195,
      "able": 196,
      "ess": 197,
      "rom": 198,
      "im": 199,
      "myself": 200,
      "would": 201,
      "ong": 202,
      "they": 203,
      "thin": 204,
      "will": 205,
      "ok": 206,
      "ast": 207,
      "had": 208,
      "ation": 209,
      "did": 210,
      "who": 211,
      "make": 212,
      "qu": 213,
      "il": 214,
      "peo": 215,
      "people": 216,
      "ittle": 217,
      "ment": 218,
      "tion": 219,
      "little": 220,
      "from": 221,
      "nd": 222,
      "bit": 223,
      "ard": 224,
      "being": 225,
      "sp": 226,
      "ell": 227,
      "her": 228,
      "our": 229,
      "bo": 230,
      "than": 231,
      "less": 232,
      "com": 233,
      "pro": 234,
      "dis": 235,
      "every": 236,
      "mu": 237,
      "them": 238,
      "et": 239,
      "ol": 240,
      "pl": 241,
      "ack": 242,
      "sa": 243,
      "ving": 244,
      "think": 245,
      "other": 246,
      "whi": 247,
      "ci": 248,
      "te": 249,
      "ight": 250,
      "see": 251,
      "wn": 252,
      "there": 253,
      "act": 254,
      "ound": 255,
      "even": 256,
      "still": 257,
      "mb": 258,
      "ite": 259,
      "over": 260,
      "ort": 261,
      "its": 262,
      "tic": 263,
      "tr": 264,
      "af": 265,
      "ep": 266,
      "ig": 267,
      "him": 268,
      "ck": 269,
      "much": 270,
      "fo": 271,
      "could": 272,
      "life": 273,
      "love": 274,
      "need": 275,
      "ace": 276,
      "ish": 277,
      "happ": 278,
      "der": 279,
      "ist": 280,
      "fri": 281,
      "ass": 282,
      "read": 283,
      "gr": 284,
      "hel": 285,
      "something": 286,
      "ide": 287,
      "gu": 288,
      "ta": 289,
      "things": 290,
      "ved": 291,
      "ye": 292,
      "going": 293,
      "say": 294,
      "most": 295,
      "ity": 296,
      "ure": 297,
      "start": 298,
      "ine": 299,
      "too": 300,
      "dont": 301,
      "comp": 302,
      "friend": 303,
      "vi": 304,
      "imp": 305,
      "na": 306,
      "she": 307,
      "jo": 308,
      "int": 309,
      "rel": 310,
      "come": 311,
      "wo": 312,
      "work": 313,
      "has": 314,
      "back": 315,
      "wr": 316,
      "str": 317,
      "ang": 318,
      "your": 319,
      "ways": 320,
      "low": 321,
      "tty": 322,
      "good": 323,
      "his": 324,
      "ach": 325,
      "right": 326,
      "whe": 327,
      "ose": 328,
      "ting": 329,
      "sto": 330,
      "ers": 331,
      "fa": 332,
      "ress": 333,
      "ade": 334,
      "ble": 335,
      "should": 336,
      "into": 337,
      "cont": 338,
      "med": 339,
      "pretty": 340,
      "their": 341,
      "app": 342,
      "help": 343,
      "always": 344,
      "son": 345,
      "man": 346,
      "which": 347,
      "ty": 348,
      "again": 349,
      "after": 350,
      "reat": 351,
      "ning": 352,
      "times": 353,
      "pr": 354,
      "sure": 355,
      "let": 356,
      "pt": 357,
      "new": 358,
      "try": 359,
      "year": 360,
      "only": 361,
      "du": 362,
      "though": 363,
      "ious": 364,
      "these": 365,
      "also": 366,
      "cho": 367,
      "ie": 368,
      "where": 369,
      "then": 370,
      "la": 371,
      "ought": 372,
      "mis": 373,
      "feels": 374,
      "spe": 375,
      "bel": 376,
      "ick": 377,
      "look": 378,
      "ward": 379,
      "iz": 380,
      "sit": 381,
      "long": 382,
      "ener": 383,
      "ek": 384,
      "here": 385,
      "mor": 386,
      "never": 387,
      "feelings": 388,
      "happy": 389,
      "person": 390,
      "were": 391,
      "kind": 392,
      "fort": 393,
      "used": 394,
      "won": 395,
      "cou": 396,
      "tal": 397,
      "sha": 398,
      "cant": 399,
      "well": 400,
      "bet": 401,
      "today": 402,
      "home": 403,
      "week": 404,
      "may": 405,
      "supp": 406,
      "down": 407,
      "heart": 408,
      "real": 409,
      "fore": 410,
      "ened": 411,
      "part": 412,
      "around": 413,
      "fin": 414,
      "log": 415,
      "cl": 416,
      "bl": 417,
      "ree": 418,
      "fi": 419,
      "those": 420,
      "off": 421,
      "thr": 422,
      "got": 423,
      "ily": 424,
      "lot": 425,
      "az": 426,
      "fr": 427,
      "ud": 428,
      "ref": 429,
      "didnt": 430,
      "made": 431,
      "thought": 432,
      "ever": 433,
      "ually": 434,
      "fu": 435,
      "par": 436,
      "ence": 437,
      "des": 438,
      "through": 439,
      "ner": 440,
      "ms": 441,
      "find": 442,
      "sin": 443,
      "op": 444,
      "ft": 445,
      "someone": 446,
      "while": 447,
      "doing": 448,
      "mber": 449,
      "je": 450,
      "fel": 451,
      "take": 452,
      "ies": 453,
      "why": 454,
      "ice": 455,
      "having": 456,
      "mi": 457,
      "days": 458,
      "cept": 459,
      "gl": 460,
      "reas": 461,
      "many": 462,
      "night": 463,
      "joy": 464,
      "makes": 465,
      "under": 466,
      "ked": 467,
      "quite": 468,
      "ressed": 469,
      "side": 470,
      "ange": 471,
      "hope": 472,
      "age": 473,
      "rest": 474,
      "post": 475,
      "felt": 476,
      "ten": 477,
      "anything": 478,
      "sen": 479,
      "wa": 480,
      "last": 481,
      "sed": 482,
      "br": 483,
      "since": 484,
      "hu": 485,
      "thank": 486,
      "name": 487,
      "before": 488,
      "iv": 489,
      "ans": 490,
      "cted": 491,
      "peri": 492,
      "actually": 493,
      "own": 494,
      "stand": 495,
      "cer": 496,
      "enough": 497,
      "bad": 498,
      "mon": 499,
      "amaz": 500,
      "better": 501,
      "getting": 502,
      "tell": 503,
      "ged": 504,
      "does": 505,
      "dist": 506,
      "conf": 507,
      "min": 508,
      "left": 509,
      "car": 510,
      "friends": 511,
      "such": 512,
      "cle": 513,
      "pleas": 514,
      "press": 515,
      "atch": 516,
      "fir": 517,
      "reme": 518,
      "ready": 519,
      "ip": 520,
      "tru": 521,
      "htt": 522,
      "http": 523,
      "ak": 524,
      "ild": 525,
      "blog": 526,
      "world": 527,
      "fam": 528,
      "accept": 529,
      "without": 530,
      "ance": 531,
      "emo": 532,
      "comfort": 533,
      "bab": 534,
      "away": 535,
      "give": 536,
      "put": 537,
      "row": 538,
      "sad": 539,
      "keep": 540,
      "pres": 541,
      "sur": 542,
      "everything": 543,
      "om": 544,
      "ular": 545,
      "sometimes": 546,
      "ody": 547,
      "pri": 548,
      "tri": 549,
      "book": 550,
      "few": 551,
      "pa": 552,
      "first": 553,
      "light": 554,
      "tive": 555,
      "terri": 556,
      "dec": 557,
      "mind": 558,
      "emotion": 559,
      "ating": 560,
      "tim": 561,
      "moment": 562,
      "cr": 563,
      "fied": 564,
      "sho": 565,
      "men": 566,
      "sat": 567,
      "cess": 568,
      "said": 569,
      "tain": 570,
      "swe": 571,
      "bu": 572,
      "pass": 573,
      "ness": 574,
      "iting": 575,
      "aw": 576,
      "ken": 577,
      "res": 578,
      "remember": 579,
      "started": 580,
      "ph": 581,
      "bro": 582,
      "del": 583,
      "lat": 584,
      "wonder": 585,
      "tur": 586,
      "ction": 587,
      "gre": 588,
      "tor": 589,
      "pain": 590,
      "sm": 591,
      "ser": 592,
      "ren": 593,
      "tra": 594,
      "body": 595,
      "exc": 596,
      "play": 597,
      "ned": 598,
      "inc": 599,
      "lea": 600,
      "list": 601,
      "sing": 602,
      "ted": 603,
      "fun": 604,
      "loo": 605,
      "hand": 606,
      "ste": 607,
      "ug": 608,
      "href": 609,
      "rather": 610,
      "head": 611,
      "cra": 612,
      "hur": 613,
      "hor": 614,
      "gener": 615,
      "worth": 616,
      "wal": 617,
      "hate": 618,
      "child": 619,
      "irl": 620,
      "ves": 621,
      "cu": 622,
      "run": 623,
      "trying": 624,
      "god": 625,
      "ts": 626,
      "che": 627,
      "family": 628,
      "cent": 629,
      "val": 630,
      "ird": 631,
      "stu": 632,
      "girl": 633,
      "might": 634,
      "ited": 635,
      "bed": 636,
      "loved": 637,
      "ys": 638,
      "mar": 639,
      "call": 640,
      "sy": 641,
      "itated": 642,
      "lu": 643,
      "comfortable": 644,
      "vent": 645,
      "hard": 646,
      "import": 647,
      "same": 648,
      "hi": 649,
      "place": 650,
      "clo": 651,
      "gy": 652,
      "ga": 653,
      "vo": 654,
      "tu": 655,
      "beg": 656,
      "bre": 657,
      "ush": 658,
      "show": 659,
      "support": 660,
      "ny": 661,
      "making": 662,
      "cre": 663,
      "content": 664,
      "important": 665,
      "strong": 666,
      "amazing": 667,
      "ank": 668,
      "fer": 669,
      "sle": 670,
      "years": 671,
      "sured": 672,
      "alone": 673,
      "yet": 674,
      "two": 675,
      "whel": 676,
      "cal": 677,
      "mat": 678,
      "gic": 679,
      "eless": 680,
      "ash": 681,
      "already": 682,
      "watch": 683,
      "care": 684,
      "overwhel": 685,
      "ise": 686,
      "point": 687,
      "wanted": 688,
      "word": 689,
      "eas": 690,
      "dif": 691,
      "ship": 692,
      "sor": 693,
      "appre": 694,
      "au": 695,
      "face": 696,
      "sweet": 697,
      "great": 698,
      "sol": 699,
      "tend": 700,
      "experi": 701,
      "others": 702,
      "reason": 703,
      "cked": 704,
      "irr": 705,
      "ens": 706,
      "chool": 707,
      "fect": 708,
      "school": 709,
      "bor": 710,
      "toward": 711,
      "certain": 712,
      "bless": 713,
      "done": 714,
      "ib": 715,
      "amp": 716,
      "nothing": 717,
      "enjoy": 718,
      "complet": 719,
      "sk": 720,
      "usted": 721,
      "everyone": 722,
      "weird": 723,
      "understand": 724,
      "pu": 725,
      "di": 726,
      "another": 727,
      "guess": 728,
      "xt": 729,
      "write": 730,
      "morning": 731,
      "kid": 732,
      "old": 733,
      "coming": 734,
      "ff": 735,
      "cial": 736,
      "valu": 737,
      "rent": 738,
      "satis": 739,
      "rain": 740,
      "cially": 741,
      "hurt": 742,
      "went": 743,
      "angry": 744,
      "col": 745,
      "often": 746,
      "lost": 747,
      "completely": 748,
      "ath": 749,
      "next": 750,
      "stressed": 751,
      "fear": 752,
      "sleep": 753,
      "wrong": 754,
      "ionate": 755,
      "ps": 756,
      "est": 757,
      "almost": 758,
      "vel": 759,
      "didn": 760,
      "ual": 761,
      "pic": 762,
      "overwhelmed": 763,
      "mer": 764,
      "mean": 765,
      "gent": 766,
      "tre": 767,
      "wel": 768,
      "cas": 769,
      "arent": 770,
      "belie": 771,
      "thinking": 772,
      "ru": 773,
      "posit": 774,
      "else": 775,
      "ised": 776,
      "ces": 777,
      "lear": 778,
      "ident": 779,
      "sick": 780,
      "maybe": 781,
      "inter": 782,
      "miss": 783,
      "talk": 784,
      "excited": 785,
      "nor": 786,
      "ob": 787,
      "ustr": 788,
      "ished": 789,
      "vie": 790,
      "ump": 791,
      "once": 792,
      "blessed": 793,
      "whole": 794,
      "ear": 795,
      "ef": 796,
      "depress": 797,
      "fact": 798,
      "dam": 799,
      "char": 800,
      "bur": 801,
      "mel": 802,
      "hop": 803,
      "hes": 804,
      "strange": 805,
      "les": 806,
      "ations": 807,
      "yes": 808,
      "led": 809,
      "month": 810,
      "past": 811,
      "ized": 812,
      "best": 813,
      "ouse": 814,
      "looking": 815,
      "found": 816,
      "writing": 817,
      "sorry": 818,
      "ions": 819,
      "cy": 820,
      "accepted": 821,
      "ster": 822,
      "thetic": 823,
      "ize": 824,
      "anx": 825,
      "hated": 826,
      "espe": 827,
      "satisfied": 828,
      "sul": 829,
      "cut": 830,
      "especially": 831,
      "comm": 832,
      "must": 833,
      "produ": 834,
      "amed": 835,
      "til": 836,
      "pless": 837,
      "suc": 838,
      "guil": 839,
      "emp": 840,
      "ctive": 841,
      "class": 842,
      "frustr": 843,
      "cur": 844,
      "den": 845,
      "job": 846,
      "tired": 847,
      "inv": 848,
      "helpless": 849,
      "nu": 850,
      "aring": 851,
      "wish": 852,
      "cared": 853,
      "anyone": 854,
      "lately": 855,
      "creat": 856,
      "partic": 857,
      "lon": 858,
      "oud": 859,
      "hone": 860,
      "particular": 861,
      "far": 862,
      "stop": 863,
      "free": 864,
      "house": 865,
      "ught": 866,
      "anger": 867,
      "hour": 868,
      "probab": 869,
      "usu": 870,
      "probably": 871,
      "dr": 872,
      "icious": 873,
      "each": 874,
      "came": 875,
      "least": 876,
      "sense": 877,
      "diffe": 878,
      "hon": 879,
      "room": 880,
      "sub": 881,
      "cons": 882,
      "ary": 883,
      "vers": 884,
      "towards": 885,
      "ign": 886,
      "believe": 887,
      "vely": 888,
      "stup": 889,
      "sort": 890,
      "told": 891,
      "perfect": 892,
      "share": 893,
      "passionate": 894,
      "until": 895,
      "turn": 896,
      "set": 897,
      "ask": 898,
      "peace": 899,
      "big": 900,
      "stupid": 901,
      "emb": 902,
      "leave": 903,
      "cri": 904,
      "cold": 905,
      "stud": 906,
      "count": 907,
      "oint": 908,
      "gi": 909,
      "appoint": 910,
      "ses": 911,
      "add": 912,
      "supporting": 913,
      "agitated": 914,
      "become": 915,
      "ative": 916,
      "slight": 917,
      "raid": 918,
      "glad": 919,
      "honest": 920,
      "super": 921,
      "mess": 922,
      "thats": 923,
      "wasnt": 924,
      "raged": 925,
      "fic": 926,
      "pleasant": 927,
      "ond": 928,
      "ture": 929,
      "starting": 930,
      "inside": 931,
      "vious": 932,
      "scared": 933,
      "fully": 934,
      "stay": 935,
      "ven": 936,
      "success": 937,
      "ient": 938,
      "ax": 939,
      "ments": 940,
      "ue": 941,
      "afraid": 942,
      "live": 943,
      "hot": 944,
      "arr": 945,
      "respe": 946,
      "mus": 947,
      "ima": 948,
      "working": 949,
      "high": 950,
      "iness": 951,
      "offe": 952,
      "saying": 953,
      "surpr": 954,
      "antic": 955,
      "compl": 956,
      "words": 957,
      "ouch": 958,
      "iev": 959,
      "frustrated": 960,
      "ible": 961,
      "adm": 962,
      "situ": 963,
      "wer": 964,
      "ically": 965,
      "appreci": 966,
      "ap": 967,
      "ink": 968,
      "tten": 969,
      "ging": 970,
      "ming": 971,
      "liked": 972,
      "cool": 973,
      "luck": 974,
      "depressed": 975,
      "fre": 976,
      "wonderful": 977,
      "uring": 978,
      "cious": 979,
      "rist": 980,
      "defe": 981,
      "grate": 982,
      "mal": 983,
      "belo": 984,
      "ided": 985,
      "anno": 986,
      "heal": 987,
      "itting": 988,
      "relax": 989,
      "relation": 990,
      "hear": 991,
      "ibly": 992,
      "stuff": 993,
      "io": 994,
      "reading": 995,
      "grateful": 996,
      "action": 997,
      "mother": 998,
      "spend": 999,
      "aching": 1000,
      "disappoint": 1001,
      "change": 1002,
      "truly": 1003,
      "annoy": 1004,
      "anxious": 1005,
      "ith": 1006,
      "aged": 1007,
      "gro": 1008,
      "stead": 1009,
      "kids": 1010,
      "ones": 1011,
      "safe": 1012,
      "generous": 1013,
      "loving": 1014,
      "trust": 1015,
      "horri": 1016,
      "experience": 1017,
      "finally": 1018,
      "insp": 1019,
      "slightly": 1020,
      "happen": 1021,
      "ger": 1022,
      "trem": 1023,
      "begin": 1024,
      "ele": 1025,
      "ents": 1026,
      "ical": 1027,
      "positive": 1028,
      "relationship": 1029,
      "special": 1030,
      "ital": 1031,
      "guilty": 1032,
      "plan": 1033,
      "pped": 1034,
      "woke": 1035,
      "cor": 1036,
      "inte": 1037,
      "faith": 1038,
      "move": 1039,
      "war": 1040,
      "expe": 1041,
      "ah": 1042,
      "quest": 1043,
      "parent": 1044,
      "enti": 1045,
      "walk": 1046,
      "vous": 1047,
      "cond": 1048,
      "vis": 1049,
      "cannot": 1050,
      "emotional": 1051,
      "nervous": 1052,
      "taking": 1053,
      "simp": 1054,
      "particularly": 1055,
      "eat": 1056,
      "both": 1057,
      "confident": 1058,
      "thankful": 1059,
      "lic": 1060,
      "lonely": 1061,
      "rious": 1062,
      "allow": 1063,
      "game": 1064,
      "cry": 1065,
      "toge": 1066,
      "food": 1067,
      "ility": 1068,
      "instead": 1069,
      "together": 1070,
      "tot": 1071,
      "contin": 1072,
      "extrem": 1073,
      "proud": 1074,
      "fall": 1075,
      "unity": 1076,
      "ings": 1077,
      "zy": 1078,
      "different": 1079,
      "beloved": 1080,
      "exha": 1081,
      "weeks": 1082,
      "totally": 1083,
      "during": 1084,
      "extremely": 1085,
      "cure": 1086,
      "fine": 1087,
      "children": 1088,
      "hal": 1089,
      "ired": 1090,
      "christ": 1091,
      "band": 1092,
      "pop": 1093,
      "als": 1094,
      "bus": 1095,
      "ream": 1096,
      "ither": 1097,
      "usually": 1098,
      "defin": 1099,
      "bas": 1100,
      "mad": 1101,
      "funny": 1102,
      "beat": 1103,
      "pho": 1104,
      "ject": 1105,
      "symp": 1106,
      "wont": 1107,
      "istic": 1108,
      "resp": 1109,
      "uncomfortable": 1110,
      "knew": 1111,
      "ween": 1112,
      "view": 1113,
      "bitch": 1114,
      "hold": 1115,
      "suf": 1116,
      "dou": 1117,
      "interest": 1118,
      "successful": 1119,
      "ia": 1120,
      "listen": 1121,
      "baby": 1122,
      "story": 1123,
      "full": 1124,
      "idea": 1125,
      "ins": 1126,
      "talking": 1127,
      "vir": 1128,
      "inse": 1129,
      "form": 1130,
      "anymore": 1131,
      "proble": 1132,
      "ced": 1133,
      "embarr": 1134,
      "oh": 1135,
      "ately": 1136,
      "incred": 1137,
      "ities": 1138,
      "nice": 1139,
      "imag": 1140,
      "ling": 1141,
      "deep": 1142,
      "calm": 1143,
      "confused": 1144,
      "embarrass": 1145,
      "ons": 1146,
      "matter": 1147,
      "opp": 1148,
      "using": 1149,
      "break": 1150,
      "fab": 1151,
      "havent": 1152,
      "pun": 1153,
      "disappointed": 1154,
      "cking": 1155,
      "disg": 1156,
      "temp": 1157,
      "poss": 1158,
      "decided": 1159,
      "ieved": 1160,
      "missed": 1161,
      "thanks": 1162,
      "dri": 1163,
      "line": 1164,
      "hair": 1165,
      "ult": 1166,
      "gn": 1167,
      "boy": 1168,
      "longer": 1169,
      "exhausted": 1170,
      "admit": 1171,
      "contro": 1172,
      "tful": 1173,
      "horrible": 1174,
      "doesnt": 1175,
      "trou": 1176,
      "stic": 1177,
      "gle": 1178,
      "thoughts": 1179,
      "lucky": 1180,
      "ago": 1181,
      "comes": 1182,
      "ky": 1183,
      "giving": 1184,
      "reg": 1185,
      "hours": 1186,
      "annoyed": 1187,
      "stant": 1188,
      "terrible": 1189,
      "selfish": 1190,
      "mone": 1191,
      "ider": 1192,
      "broken": 1193,
      "fol": 1194,
      "health": 1195,
      "between": 1196,
      "pur": 1197,
      "lovely": 1198,
      "sun": 1199,
      "women": 1200,
      "wake": 1201,
      "situation": 1202,
      "absol": 1203,
      "tured": 1204,
      "ager": 1205,
      "sex": 1206,
      "timid": 1207,
      "cute": 1208,
      "surprised": 1209,
      "bra": 1210,
      "tit": 1211,
      "creative": 1212,
      "seem": 1213,
      "acted": 1214,
      "absolut": 1215,
      "awk": 1216,
      "meet": 1217,
      "stat": 1218,
      "ww": 1219,
      "months": 1220,
      "eyes": 1221,
      "definit": 1222,
      "pis": 1223,
      "lled": 1224,
      "mental": 1225,
      "open": 1226,
      "lame": 1227,
      "ot": 1228,
      "alous": 1229,
      "photo": 1230,
      "atient": 1231,
      "awkward": 1232,
      "gor": 1233,
      "ushed": 1234,
      "ulous": 1235,
      "vile": 1236,
      "mom": 1237,
      "iven": 1238,
      "jealous": 1239,
      "guy": 1240,
      "couldnt": 1241,
      "energy": 1242,
      "dream": 1243,
      "money": 1244,
      "intel": 1245,
      "miser": 1246,
      "igno": 1247,
      "tortured": 1248,
      "close": 1249,
      "ppy": 1250,
      "caring": 1251,
      "vul": 1252,
      "couple": 1253,
      "picture": 1254,
      "knowing": 1255,
      "cour": 1256,
      "regre": 1257,
      "either": 1258,
      "relaxed": 1259,
      "living": 1260,
      "awful": 1261,
      "sound": 1262,
      "took": 1263,
      "dra": 1264,
      "numb": 1265,
      "arti": 1266,
      "ars": 1267,
      "itty": 1268,
      "seems": 1269,
      "lit": 1270,
      "given": 1271,
      "issu": 1272,
      "suffer": 1273,
      "div": 1274,
      "ying": 1275,
      "thered": 1276,
      "hopeless": 1277,
      "song": 1278,
      "music": 1279,
      "ton": 1280,
      "lol": 1281,
      "ano": 1282,
      "insecure": 1283,
      "mas": 1284,
      "conv": 1285,
      "pping": 1286,
      "half": 1287,
      "kinda": 1288,
      "embarrassed": 1289,
      "weight": 1290,
      "useless": 1291,
      "resent": 1292,
      "woman": 1293,
      "ont": 1294,
      "vulner": 1295,
      "conne": 1296,
      "inspired": 1297,
      "plain": 1298,
      "seeing": 1299,
      "bitter": 1300,
      "fut": 1301,
      "doub": 1302,
      "definitely": 1303,
      "uct": 1304,
      "somewhat": 1305,
      "empty": 1306,
      "deal": 1307,
      "termin": 1308,
      "distr": 1309,
      "absolutely": 1310,
      "future": 1311,
      "unsure": 1312,
      "auti": 1313,
      "second": 1314,
      "friendly": 1315,
      "unhappy": 1316,
      "reje": 1317,
      "dev": 1318,
      "soci": 1319,
      "rich": 1320,
      "control": 1321,
      "decis": 1322,
      "incredibly": 1323,
      "itable": 1324,
      "ried": 1325,
      "gra": 1326,
      "danger": 1327,
      "sum": 1328,
      "beauti": 1329,
      "soon": 1330,
      "productive": 1331,
      "consider": 1332,
      "touch": 1333,
      "advent": 1334,
      "blo": 1335,
      "inno": 1336,
      "dumb": 1337,
      "vulnerable": 1338,
      "viol": 1339,
      "grow": 1340,
      "ensive": 1341,
      "watching": 1342,
      "precious": 1343,
      "cus": 1344,
      "smart": 1345,
      "fant": 1346,
      "tiv": 1347,
      "bothered": 1348,
      "couraged": 1349,
      "fill": 1350,
      "miserable": 1351,
      "spent": 1352,
      "sou": 1353,
      "stal": 1354,
      "geous": 1355,
      "intelli": 1356,
      "dden": 1357,
      "exact": 1358,
      "astic": 1359,
      "acter": 1360,
      "determin": 1361,
      "insul": 1362,
      "parents": 1363,
      "minut": 1364,
      "da": 1365,
      "irritated": 1366,
      "ater": 1367,
      "spir": 1368,
      "pissed": 1369,
      "colle": 1370,
      "mile": 1371,
      "aded": 1372,
      "fest": 1373,
      "skin": 1374,
      "isol": 1375,
      "gentle": 1376,
      "fool": 1377,
      "character": 1378,
      "small": 1379,
      "worthless": 1380,
      "saw": 1381,
      "boring": 1382,
      "drain": 1383,
      "sudden": 1384,
      "adequ": 1385,
      "phys": 1386,
      "dir": 1387,
      "ugh": 1388,
      "fail": 1389,
      "nat": 1390,
      "thri": 1391,
      "ugly": 1392,
      "sty": 1393,
      "shitty": 1394,
      "running": 1395,
      "beautiful": 1396,
      "ries": 1397,
      "pie": 1398,
      "respected": 1399,
      "leg": 1400,
      "comed": 1401,
      "peaceful": 1402,
      "ber": 1403,
      "ety": 1404,
      "curious": 1405,
      "amazed": 1406,
      "faithful": 1407,
      "terrified": 1408,
      "offend": 1409,
      "hopeful": 1410,
      "sitting": 1411,
      "youn": 1412,
      "rude": 1413,
      "welcome": 1414,
      "relieved": 1415,
      "popular": 1416,
      "sincere": 1417,
      "privile": 1418,
      "win": 1419,
      "disgusted": 1420,
      "along": 1421,
      "ark": 1422,
      "impressed": 1423,
      "whate": 1424,
      "shy": 1425,
      "determined": 1426,
      "experien": 1427,
      "hus": 1428,
      "oc": 1429,
      "human": 1430,
      "ashamed": 1431,
      "uncertain": 1432,
      "gorgeous": 1433,
      "umpy": 1434,
      "youre": 1435,
      "tonight": 1436,
      "innocent": 1437,
      "ian": 1438,
      "athetic": 1439,
      "longing": 1440,
      "remind": 1441,
      "express": 1442,
      "happened": 1443,
      "rejected": 1444,
      "useful": 1445,
      "whatever": 1446,
      "valued": 1447,
      "shocked": 1448,
      "vic": 1449,
      "top": 1450,
      "haha": 1451,
      "inadequ": 1452,
      "tried": 1453,
      "wear": 1454,
      "romantic": 1455,
      "threat": 1456,
      "dangerous": 1457,
      "discouraged": 1458,
      "acceptable": 1459,
      "husband": 1460,
      "getic": 1461,
      "distur": 1462,
      "ors": 1463,
      "dened": 1464,
      "valuable": 1465,
      "hesit": 1466,
      "chang": 1467,
      "somehow": 1468,
      "optim": 1469,
      "fake": 1470,
      "homesick": 1471,
      "ire": 1472,
      "fair": 1473,
      "fortun": 1474,
      "parano": 1475,
      "began": 1476,
      "convinc": 1477,
      "resentful": 1478,
      "bar": 1479,
      "constant": 1480,
      "pathetic": 1481,
      "brave": 1482,
      "follow": 1483,
      "although": 1484,
      "strug": 1485,
      "gone": 1486,
      "grou": 1487,
      "isolated": 1488,
      "drained": 1489,
      "three": 1490,
      "delicious": 1491,
      "dull": 1492,
      "crank": 1493,
      "irritable": 1494,
      "thar": 1495,
      "bring": 1496,
      "tender": 1497,
      "whenever": 1498,
      "intelligent": 1499,
      "sympathetic": 1500,
      "needed": 1501,
      "energetic": 1502,
      "grumpy": 1503,
      "pressured": 1504,
      "expect": 1505,
      "ented": 1506,
      "shit": 1507,
      "truth": 1508,
      "joyful": 1509,
      "worthwhile": 1510,
      "late": 1511,
      "asked": 1512,
      "mid": 1513,
      "lethar": 1514,
      "eager": 1515,
      "ggy": 1516,
      "usion": 1517,
      "reluct": 1518,
      "born": 1519,
      "optimistic": 1520,
      "cranky": 1521,
      "distracted": 1522,
      "against": 1523,
      "laugh": 1524,
      "appreh": 1525,
      "intimid": 1526,
      "realize": 1527,
      "suffering": 1528,
      "inadequate": 1529,
      "mine": 1530,
      "ored": 1531,
      "crappy": 1532,
      "restless": 1533,
      "simply": 1534,
      "fig": 1535,
      "defeated": 1536,
      "serious": 1537,
      "convinced": 1538,
      "reluctant": 1539,
      "whether": 1540,
      "dirty": 1541,
      "paranoid": 1542,
      "ile": 1543,
      "damn": 1544,
      "loy": 1545,
      "fucked": 1546,
      "lethargic": 1547,
      "uni": 1548,
      "rushed": 1549,
      "igor": 1550,
      "honestly": 1551,
      "spo": 1552,
      "offended": 1553,
      "impatient": 1554,
      "broke": 1555,
      "blank": 1556,
      "nostal": 1557,
      "resol": 1558,
      "step": 1559,
      "depri": 1560,
      "explain": 1561,
      "state": 1562,
      "ignored": 1563,
      "bitchy": 1564,
      "privileged": 1565,
      "course": 1566,
      "lack": 1567,
      "greed": 1568,
      "ancho": 1569,
      "yester": 1570,
      "ared": 1571,
      "dissatisfied": 1572,
      "apprehensive": 1573,
      "exactly": 1574,
      "vital": 1575,
      "clever": 1576,
      "recent": 1577,
      "mili": 1578,
      "pleased": 1579,
      "ude": 1580,
      "mug": 1581,
      "fright": 1582,
      "bled": 1583,
      "divine": 1584,
      "hesitant": 1585,
      "air": 1586,
      "true": 1587,
      "insulted": 1588,
      "melancho": 1589,
      "fit": 1590,
      "pray": 1591,
      "intimidated": 1592,
      "isnt": 1593,
      "front": 1594,
      "honored": 1595,
      "shaky": 1596,
      "disturbed": 1597,
      "humili": 1598,
      "amer": 1599,
      "needy": 1600,
      "weekend": 1601,
      "fucking": 1602,
      "rid": 1603,
      "welcomed": 1604,
      "vain": 1605,
      "wronged": 1606,
      "beaten": 1607,
      "ition": 1608,
      "devast": 1609,
      "assured": 1610,
      "eating": 1611,
      "ining": 1612,
      "quick": 1613,
      "greedy": 1614,
      "deprived": 1615,
      "pay": 1616,
      "doo": 1617,
      "foolish": 1618,
      "sc": 1619,
      "osed": 1620,
      "senti": 1621,
      "wanting": 1622,
      "abused": 1623,
      "fantastic": 1624,
      "cli": 1625,
      "punished": 1626,
      "melancholy": 1627,
      "lead": 1628,
      "hun": 1629,
      "yesterday": 1630,
      "burdened": 1631,
      "icate": 1632,
      "taken": 1633,
      "opport": 1634,
      "guys": 1635,
      "violent": 1636,
      "ben": 1637,
      "ec": 1638,
      "order": 1639,
      "groggy": 1640,
      "wouldnt": 1641,
      "personal": 1642,
      "teach": 1643,
      "troubled": 1644,
      "fast": 1645,
      "gen": 1646,
      "thrilled": 1647,
      "emotions": 1648,
      "enter": 1649,
      "short": 1650,
      "gloo": 1651,
      "heartbroken": 1652,
      "learn": 1653,
      "um": 1654,
      "smug": 1655,
      "humiliated": 1656,
      "dro": 1657,
      "gloomy": 1658,
      "spirit": 1659,
      "itch": 1660,
      "ross": 1661,
      "needs": 1662,
      "nostalgic": 1663,
      "doomed": 1664,
      "fil": 1665,
      "seen": 1666,
      "frightened": 1667,
      "vide": 1668,
      "mood": 1669,
      "summer": 1670,
      "appe": 1671,
      "threatened": 1672,
      "within": 1673,
      "team": 1674,
      "invigor": 1675,
      "superi": 1676,
      "exp": 1677,
      "hind": 1678,
      "round": 1679,
      "mellow": 1680,
      "resolved": 1681,
      "slow": 1682,
      "suppor": 1683,
      "desp": 1684,
      "telling": 1685,
      "superior": 1686,
      "dire": 1687,
      "festive": 1688,
      "devastated": 1689,
      "invigorated": 1690,
      "lous": 1691,
      "ount": 1692,
      "pick": 1693,
      "rotten": 1694,
      "fav": 1695,
      "jud": 1696,
      "wait": 1697,
      "unimportant": 1698,
      "reassured": 1699,
      "continue": 1700,
      "resul": 1701,
      "mention": 1702,
      "aces": 1703,
      "girls": 1704,
      "water": 1705,
      "envious": 1706,
      "har": 1707,
      "books": 1708,
      "lousy": 1709,
      "jour": 1710,
      "gets": 1711,
      "theres": 1712,
      "near": 1713,
      "ssion": 1714,
      "looks": 1715,
      "power": 1716,
      "forward": 1717,
      "wed": 1718,
      "urous": 1719,
      "fabulous": 1720,
      "talented": 1721,
      "ju": 1722,
      "arch": 1723,
      "ord": 1724,
      "father": 1725,
      "realized": 1726,
      "adventurous": 1727,
      "adv": 1728,
      "normal": 1729,
      "type": 1730,
      "deser": 1731,
      "fl": 1732,
      "smile": 1733,
      "exam": 1734,
      "effort": 1735,
      "aking": 1736,
      "group": 1737,
      "naught": 1738,
      "ket": 1739,
      "messy": 1740,
      "outside": 1741,
      "ability": 1742,
      "oured": 1743,
      "damaged": 1744,
      "christmas": 1745,
      "ungrateful": 1746,
      "os": 1747,
      "disheart": 1748,
      "project": 1749,
      "rece": 1750,
      "sentimental": 1751,
      "naughty": 1752,
      "ier": 1753,
      "cing": 1754,
      "shaken": 1755,
      "petty": 1756,
      "selves": 1757,
      "moments": 1758,
      "warm": 1759,
      "lives": 1760,
      "single": 1761,
      "disheartened": 1762,
      "current": 1763,
      "gest": 1764,
      "jaded": 1765,
      "hands": 1766,
      "unwelcome": 1767,
      "speak": 1768,
      "met": 1769,
      "wasn": 1770,
      "later": 1771,
      "tting": 1772,
      "treat": 1773,
      "static": 1774,
      "due": 1775,
      "style": 1776,
      "called": 1777,
      "supportive": 1778,
      "imagine": 1779,
      "young": 1780,
      "land": 1781,
      "oun": 1782,
      "horny": 1783,
      "att": 1784,
      "clear": 1785,
      "behind": 1786,
      "trusting": 1787,
      "main": 1788,
      "fearful": 1789,
      "seas": 1790,
      "prote": 1791,
      "que": 1792,
      "regretful": 1793,
      "gotten": 1794,
      "tice": 1795,
      "rep": 1796,
      "unch": 1797,
      "discontent": 1798,
      "virtu": 1799,
      "ane": 1800,
      "comment": 1801,
      "clean": 1802,
      "easy": 1803,
      "sil": 1804,
      "unfortun": 1805,
      "suddenly": 1806,
      "ecstatic": 1807,
      "av": 1808,
      "leaving": 1809,
      "bir": 1810,
      "means": 1811,
      "level": 1812,
      "soul": 1813,
      "worry": 1814,
      "ctor": 1815,
      "fight": 1816,
      "appro": 1817,
      "ding": 1818,
      "memor": 1819,
      "supposed": 1820,
      "casual": 1821,
      "waiting": 1822,
      "hell": 1823,
      "scre": 1824,
      "eng": 1825,
      "convers": 1826,
      "mach": 1827,
      "constantly": 1828,
      "ending": 1829,
      "pregn": 1830,
      "awe": 1831,
      "movie": 1832,
      "heard": 1833,
      "rebel": 1834,
      "case": 1835,
      "please": 1836,
      "cap": 1837,
      "present": 1838,
      "loyal": 1839,
      "space": 1840,
      "idio": 1841,
      "ext": 1842,
      "question": 1843,
      "beginning": 1844,
      "ial": 1845,
      "kill": 1846,
      "gon": 1847,
      "country": 1848,
      "delicate": 1849,
      "process": 1850,
      "wever": 1851,
      "descri": 1852,
      "ze": 1853,
      "however": 1854,
      "says": 1855,
      "honoured": 1856,
      "dark": 1857,
      "event": 1858,
      "etc": 1859,
      "birth": 1860,
      "stre": 1861,
      "igh": 1862,
      "chance": 1863,
      "rebelli": 1864,
      "rence": 1865,
      "race": 1866,
      "incl": 1867,
      "pub": 1868,
      "unloved": 1869,
      "tical": 1870,
      "hy": 1871,
      "lies": 1872,
      "ground": 1873,
      "virtuous": 1874,
      "loss": 1875,
      "rebellious": 1876,
      "ball": 1877,
      "morrow": 1878,
      "crazy": 1879,
      "dep": 1880,
      "problem": 1881,
      "inner": 1882,
      "stress": 1883,
      "host": 1884,
      "cks": 1885,
      "buy": 1886,
      "chur": 1887,
      "yeah": 1888,
      "reco": 1889,
      "ched": 1890,
      "ended": 1891,
      "gave": 1892,
      "tomorrow": 1893,
      "utter": 1894,
      "opportunity": 1895,
      "chall": 1896,
      "atten": 1897,
      "walking": 1898,
      "tight": 1899,
      "upset": 1900,
      "turned": 1901,
      "early": 1902,
      "caref": 1903,
      "death": 1904,
      "carefree": 1905,
      "sist": 1906,
      "ably": 1907,
      "despite": 1908,
      "fuck": 1909,
      "cul": 1910,
      "gan": 1911,
      "community": 1912,
      "ils": 1913,
      "haps": 1914,
      "recently": 1915,
      "ages": 1916,
      "gif": 1917,
      "illusion": 1918,
      "sl": 1919,
      "artistic": 1920,
      "reach": 1921,
      "compass": 1922,
      "bal": 1923,
      "moving": 1924,
      "comple": 1925,
      "kes": 1926,
      "ney": 1927,
      "looked": 1928,
      "ks": 1929,
      "perhaps": 1930,
      "ease": 1931,
      "lose": 1932,
      "dog": 1933,
      "contented": 1934,
      "bi": 1935,
      "cts": 1936,
      "ates": 1937,
      "delight": 1938,
      "minutes": 1939,
      "okay": 1940,
      "doesn": 1941,
      "net": 1942,
      "fection": 1943,
      "phone": 1944,
      "wing": 1945,
      "attention": 1946,
      "church": 1947,
      "unpleasant": 1948,
      "test": 1949,
      "sal": 1950,
      "goes": 1951,
      "hit": 1952,
      "ising": 1953,
      "cip": 1954,
      "holi": 1955,
      "easily": 1956,
      "ring": 1957,
      "wants": 1958,
      "finish": 1959,
      "healthy": 1960,
      "law": 1961,
      "bs": 1962,
      "season": 1963,
      "mostly": 1964,
      "possible": 1965,
      "issues": 1966,
      "appreciative": 1967,
      "pictures": 1968,
      "push": 1969,
      "ured": 1970,
      "search": 1971,
      "news": 1972,
      "prac": 1973,
      "fac": 1974,
      "tions": 1975,
      "lay": 1976,
      "putting": 1977,
      "city": 1978,
      "knowled": 1979,
      "disillusion": 1980,
      "agree": 1981,
      "gonna": 1982,
      "aste": 1983,
      "terrific": 1984,
      "card": 1985,
      "learning": 1986,
      "brain": 1987,
      "susp": 1988,
      "ines": 1989,
      "sug": 1990,
      "disillusioned": 1991,
      "diffic": 1992,
      "anyway": 1993,
      "pull": 1994,
      "flo": 1995,
      "sign": 1996,
      "lar": 1997,
      "shes": 1998,
      "ances": 1999,
      "offer": 2000,
      "stub": 2001,
      "qui": 2002,
      "focus": 2003,
      "gress": 2004,
      "pat": 2005,
      "bly": 2006,
      "wan": 2007,
      "emotionally": 2008,
      "piece": 2009,
      "daz": 2010,
      "thes": 2011,
      "forget": 2012,
      "students": 2013,
      "rage": 2014,
      "upon": 2015,
      "kept": 2016,
      "exist": 2017,
      "inten": 2018,
      "stubborn": 2019,
      "void": 2020,
      "comments": 2021,
      "ures": 2022,
      "entire": 2023,
      "hibit": 2024,
      "sever": 2025,
      "couldn": 2026,
      "problems": 2027,
      "fat": 2028,
      "ism": 2029,
      "ific": 2030,
      "flow": 2031,
      "concer": 2032,
      "fond": 2033,
      "frantic": 2034,
      "voice": 2035,
      "distressed": 2036,
      "generally": 2037,
      "mist": 2038,
      "answer": 2039,
      "motiv": 2040,
      "worried": 2041,
      "throw": 2042,
      "physically": 2043,
      "entertain": 2044,
      "accompl": 2045,
      "pressure": 2046,
      "amor": 2047,
      "wife": 2048,
      "general": 2049,
      "unfortunate": 2050,
      "dle": 2051,
      "rap": 2052,
      "ively": 2053,
      "respect": 2054,
      "neg": 2055,
      "epy": 2056,
      "cha": 2057,
      "umph": 2058,
      "worse": 2059,
      "actions": 2060,
      "victim": 2061,
      "amount": 2062,
      "apo": 2063,
      "playing": 2064,
      "triumph": 2065,
      "social": 2066,
      "em": 2067,
      "fing": 2068,
      "roll": 2069,
      "theyre": 2070,
      "favor": 2071,
      "seriously": 2072,
      "dad": 2073,
      "dazed": 2074,
      "strongly": 2075,
      "cir": 2076,
      "black": 2077,
      "uty": 2078,
      "public": 2079,
      "sar": 2080,
      "awesome": 2081,
      "busy": 2082,
      "grand": 2083,
      "tragic": 2084,
      "ied": 2085,
      "ni": 2086,
      "ills": 2087,
      "liter": 2088,
      "wearing": 2089,
      "listless": 2090,
      "certainly": 2091,
      "listening": 2092,
      "learned": 2093,
      "tar": 2094,
      "americ": 2095,
      "ptical": 2096,
      "amorous": 2097,
      "losing": 2098,
      "personally": 2099,
      "finding": 2100,
      "quickly": 2101,
      "regard": 2102,
      "suspicious": 2103,
      "triumphant": 2104,
      "themselves": 2105,
      "crying": 2106,
      "tw": 2107,
      "mix": 2108,
      "sli": 2109,
      "ined": 2110,
      "lying": 2111,
      "brother": 2112,
      "lie": 2113,
      "medi": 2114,
      "finished": 2115,
      "apart": 2116,
      "lad": 2117,
      "return": 2118,
      "keen": 2119,
      "everyday": 2120,
      "respons": 2121,
      "deeply": 2122,
      "anti": 2123,
      "figure": 2124,
      "date": 2125,
      "stra": 2126,
      "aware": 2127,
      "title": 2128,
      "conversation": 2129,
      "nal": 2130,
      "qual": 2131,
      "suppose": 2132,
      "asking": 2133,
      "notic": 2134,
      "complain": 2135,
      "cover": 2136,
      "hoping": 2137,
      "tory": 2138,
      "idence": 2139,
      "posts": 2140,
      "happens": 2141,
      "ache": 2142,
      "mil": 2143,
      "smo": 2144,
      "happiness": 2145,
      "stomach": 2146,
      "film": 2147,
      "challen": 2148,
      "dau": 2149,
      "known": 2150,
      "hang": 2151,
      "sim": 2152,
      "choose": 2153,
      "submiss": 2154,
      "non": 2155,
      "trip": 2156,
      "daught": 2157,
      "delighted": 2158,
      "si": 2159,
      "sr": 2160,
      "opin": 2161,
      "erc": 2162,
      "reasons": 2163,
      "iety": 2164,
      "serv": 2165,
      "fan": 2166,
      "dress": 2167,
      "amused": 2168,
      "walked": 2169,
      "assa": 2170,
      "dow": 2171,
      "ices": 2172,
      "build": 2173,
      "knowledge": 2174,
      "presence": 2175,
      "door": 2176,
      "feed": 2177,
      "yourself": 2178,
      "wea": 2179,
      "igned": 2180,
      "ris": 2181,
      "somewhere": 2182,
      "company": 2183,
      "gri": 2184,
      "clothes": 2185,
      "remor": 2186,
      "asses": 2187,
      "tears": 2188,
      "lots": 2189,
      "sof": 2190,
      "remorse": 2191,
      "bey": 2192,
      "decision": 2193,
      "ove": 2194,
      "becoming": 2195,
      "arms": 2196,
      "ides": 2197,
      "bb": 2198,
      "lord": 2199,
      "tom": 2200,
      "hood": 2201,
      "doctor": 2202,
      "teen": 2203,
      "drink": 2204,
      "college": 2205,
      "organ": 2206,
      "tran": 2207,
      "paper": 2208,
      "ama": 2209,
      "soo": 2210,
      "questions": 2211,
      "natur": 2212,
      "src": 2213,
      "ske": 2214,
      "stories": 2215,
      "issue": 2216,
      "uc": 2217,
      "devel": 2218,
      "crap": 2219,
      "check": 2220,
      "sounds": 2221,
      "pair": 2222,
      "usual": 2223,
      "inhibit": 2224,
      "road": 2225,
      "shouldnt": 2226,
      "huge": 2227,
      "invol": 2228,
      "fur": 2229,
      "stun": 2230,
      "evening": 2231,
      "appreciate": 2232,
      "expected": 2233,
      "pose": 2234,
      "connection": 2235,
      "worked": 2236,
      "ns": 2237,
      "stick": 2238,
      "several": 2239,
      "white": 2240,
      "town": 2241,
      "desire": 2242,
      "encou": 2243,
      "exerc": 2244,
      "interesting": 2245,
      "avoid": 2246,
      "weepy": 2247,
      "grouch": 2248,
      "gram": 2249,
      "number": 2250,
      "submissive": 2251,
      "difficult": 2252,
      "sent": 2253,
      "party": 2254,
      "recei": 2255,
      "prom": 2256,
      "affection": 2257,
      "formation": 2258,
      "haven": 2259,
      "rad": 2260,
      "iss": 2261,
      "poor": 2262,
      "feet": 2263,
      "sadness": 2264,
      "attemp": 2265,
      "deserve": 2266,
      "gain": 2267,
      "inhibited": 2268,
      "link": 2269,
      "mail": 2270,
      "except": 2271,
      "grouchy": 2272,
      "wondering": 2273,
      "photos": 2274,
      "complac": 2275,
      "wanna": 2276,
      "four": 2277,
      "weak": 2278,
      "ideas": 2279,
      "obvious": 2280,
      "doubtful": 2281,
      "pan": 2282,
      "fami": 2283,
      "cele": 2284,
      "thor": 2285,
      "daily": 2286,
      "allowed": 2287,
      "meant": 2288,
      "writ": 2289,
      "blogging": 2290,
      "discu": 2291,
      "cup": 2292,
      "ational": 2293,
      "necess": 2294,
      "skeptical": 2295,
      "letting": 2296,
      "ants": 2297,
      "negle": 2298,
      "video": 2299,
      "anim": 2300,
      "devo": 2301,
      "earth": 2302,
      "bag": 2303,
      "die": 2304,
      "dead": 2305,
      "complacent": 2306,
      "cep": 2307,
      "office": 2308,
      "position": 2309,
      "surround": 2310,
      "eye": 2311,
      "visit": 2312,
      "ibility": 2313,
      "develop": 2314,
      "stri": 2315,
      "grad": 2316,
      "reality": 2317,
      "cat": 2318,
      "scen": 2319,
      "readers": 2320,
      "mark": 2321,
      "takes": 2322,
      "posting": 2323,
      "guilt": 2324,
      "negative": 2325,
      "rote": 2326,
      "forever": 2327,
      "ase": 2328,
      "angu": 2329,
      "extra": 2330,
      "ered": 2331,
      "across": 2332,
      "beyond": 2333,
      "wrote": 2334,
      "glamorous": 2335,
      "period": 2336,
      "complete": 2337,
      "ters": 2338,
      "ilar": 2339,
      "facebook": 2340,
      "continu": 2341,
      "boun": 2342,
      "gant": 2343,
      "dest": 2344,
      "struggl": 2345,
      "wise": 2346,
      "compassionate": 2347,
      "thro": 2348,
      "ently": 2349,
      "missing": 2350,
      "box": 2351,
      "profe": 2352,
      "create": 2353,
      "knows": 2354,
      "keeping": 2355,
      "filled": 2356,
      "stood": 2357,
      "helping": 2358,
      "describe": 2359,
      "deta": 2360,
      "img": 2361,
      "boyfriend": 2362,
      "hostile": 2363,
      "celebr": 2364,
      "dinner": 2365,
      "kick": 2366,
      "immedi": 2367,
      "parti": 2368,
      "gives": 2369,
      "doubt": 2370,
      "ba": 2371,
      "uro": 2372,
      "syste": 2373,
      "assaul": 2374,
      "ric": 2375,
      "path": 2376,
      "fairly": 2377,
      "wall": 2378,
      "ics": 2379,
      "prep": 2380,
      "quiet": 2381,
      "flu": 2382,
      "jor": 2383,
      "ping": 2384,
      "iny": 2385,
      "information": 2386,
      "sett": 2387,
      "utterly": 2388,
      "daughter": 2389,
      "dy": 2390,
      "key": 2391,
      "sharing": 2392,
      "wind": 2393,
      "trans": 2394,
      "noticed": 2395,
      "places": 2396,
      "tech": 2397,
      "por": 2398,
      "assaulted": 2399,
      "bri": 2400,
      "lect": 2401,
      "whats": 2402,
      "grace": 2403,
      "meeting": 2404,
      "remorseful": 2405,
      "occas": 2406,
      "rely": 2407,
      "effect": 2408,
      "sister": 2409,
      "weather": 2410,
      "ds": 2411,
      "anxiety": 2412,
      "foc": 2413,
      "idiotic": 2414,
      "ience": 2415,
      "major": 2416,
      "apolog": 2417,
      "spect": 2418,
      "spending": 2419,
      "ann": 2420,
      "target": 2421,
      "catch": 2422,
      "progress": 2423,
      "works": 2424,
      "journey": 2425,
      "verse": 2426,
      "foot": 2427,
      "heartless": 2428,
      "victimized": 2429,
      "breath": 2430,
      "artist": 2431,
      "proper": 2432,
      "happening": 2433,
      "business": 2434,
      "jump": 2435,
      "wards": 2436,
      "society": 2437,
      "includ": 2438,
      "sn": 2439,
      "alive": 2440,
      "commun": 2441,
      "stren": 2442,
      "graph": 2443,
      "badly": 2444,
      "beha": 2445,
      "carry": 2446,
      "drive": 2447,
      "characters": 2448,
      "direction": 2449,
      "hea": 2450,
      "literally": 2451,
      "lim": 2452,
      "hug": 2453,
      "playful": 2454,
      "stuck": 2455,
      "stru": 2456,
      "mou": 2457,
      "smell": 2458,
      "ahead": 2459,
      "itten": 2460,
      "favorite": 2461,
      "experiences": 2462,
      "inst": 2463,
      "admi": 2464,
      "enjoying": 2465,
      "stunned": 2466,
      "street": 2467,
      "fli": 2468,
      "grac": 2469,
      "cla": 2470,
      "thus": 2471,
      "online": 2472,
      "board": 2473,
      "simple": 2474,
      "middle": 2475,
      "dan": 2476,
      "above": 2477,
      "confe": 2478,
      "color": 2479,
      "var": 2480,
      "events": 2481,
      "desper": 2482,
      "educ": 2483,
      "hateful": 2484,
      "birthday": 2485,
      "streng": 2486,
      "wouldn": 2487,
      "table": 2488,
      "arri": 2489,
      "slowly": 2490,
      "els": 2491,
      "brea": 2492,
      "enjoyed": 2493,
      "holiday": 2494,
      "attr": 2495,
      "mes": 2496,
      "friendship": 2497,
      "izing": 2498,
      "sleeping": 2499,
      "elegant": 2500,
      "ously": 2501,
      "frid": 2502,
      "twi": 2503,
      "engl": 2504,
      "recogn": 2505,
      "bea": 2506,
      "choice": 2507,
      "respon": 2508,
      "artic": 2509,
      "raught": 2510,
      "tray": 2511,
      "helped": 2512,
      "mouth": 2513,
      "stopped": 2514,
      "straight": 2515,
      "notice": 2516,
      "seemed": 2517,
      "grat": 2518,
      "jol": 2519,
      "track": 2520,
      "distraught": 2521,
      "shamed": 2522,
      "blood": 2523,
      "cook": 2524,
      "grav": 2525,
      "purpose": 2526,
      "sociable": 2527,
      "unless": 2528,
      "legs": 2529,
      "five": 2530,
      "impro": 2531,
      "posted": 2532,
      "nature": 2533,
      "result": 2534,
      "vered": 2535,
      "possibly": 2536,
      "currently": 2537,
      "system": 2538,
      "review": 2539,
      "ering": 2540,
      "program": 2541,
      "area": 2542,
      "lier": 2543,
      "secre": 2544,
      "gracious": 2545,
      "training": 2546,
      "pack": 2547,
      "argu": 2548,
      "boys": 2549,
      "increas": 2550,
      "calling": 2551,
      "dance": 2552,
      "leaves": 2553,
      "conscious": 2554,
      "struggle": 2555,
      "confidence": 2556,
      "isn": 2557,
      "norm": 2558,
      "difference": 2559,
      "polit": 2560,
      "career": 2561,
      "star": 2562,
      "mentally": 2563,
      "genu": 2564,
      "caught": 2565,
      "memories": 2566,
      "behavi": 2567,
      "sess": 2568,
      "strang": 2569,
      "minute": 2570,
      "acc": 2571,
      "appear": 2572,
      "betray": 2573,
      "moved": 2574,
      "fra": 2575,
      "nox": 2576,
      "store": 2577,
      "dreams": 2578,
      "sarca": 2579,
      "aud": 2580,
      "blamed": 2581,
      "watched": 2582,
      "pregnant": 2583,
      "gift": 2584,
      "entertained": 2585,
      "sarcastic": 2586,
      "gig": 2587,
      "internet": 2588,
      "beauty": 2589,
      "ination": 2590,
      "devoted": 2591,
      "neglect": 2592,
      "page": 2593,
      "wash": 2594,
      "travel": 2595,
      "fix": 2596,
      "dry": 2597,
      "written": 2598,
      "regular": 2599,
      "noon": 2600,
      "uter": 2601,
      "managed": 2602,
      "noxious": 2603,
      "tv": 2604,
      "itself": 2605,
      "lik": 2606,
      "willing": 2607,
      "earlier": 2608,
      "yo": 2609,
      "tern": 2610,
      "ilities": 2611,
      "obnoxious": 2612,
      "brought": 2613,
      "topic": 2614,
      "trouble": 2615,
      "hung": 2616,
      "depend": 2617,
      "mista": 2618,
      "immediately": 2619,
      "rac": 2620,
      "attack": 2621,
      "jolly": 2622,
      "rand": 2623,
      "bored": 2624,
      "acting": 2625,
      "growing": 2626,
      "activ": 2627,
      "charming": 2628,
      "chest": 2629,
      "situations": 2630,
      "gover": 2631,
      "explo": 2632,
      "wow": 2633,
      "uptight": 2634,
      "iling": 2635,
      "coffe": 2636,
      "ped": 2637,
      "envir": 2638,
      "environ": 2639,
      "pen": 2640,
      "port": 2641,
      "cum": 2642,
      "soft": 2643,
      "cru": 2644,
      "handle": 2645,
      "strength": 2646,
      "irt": 2647,
      "crit": 2648,
      "truthful": 2649,
      "ler": 2650,
      "among": 2651,
      "whom": 2652,
      "onto": 2653,
      "lively": 2654,
      "boo": 2655,
      "spot": 2656,
      "occasion": 2657,
      "miles": 2658,
      "odd": 2659,
      "relig": 2660,
      "hopefully": 2661,
      "shop": 2662,
      "nur": 2663,
      "coffee": 2664,
      "langu": 2665,
      "stage": 2666,
      "tenti": 2667,
      "results": 2668,
      "sw": 2669,
      "vol": 2670,
      "passed": 2671,
      "lab": 2672,
      "iding": 2673,
      "itted": 2674,
      "culture": 2675,
      "friday": 2676,
      "ator": 2677,
      "helps": 2678,
      "ridic": 2679,
      "outraged": 2680,
      "mentioned": 2681,
      "load": 2682,
      "shake": 2683,
      "failure": 2684,
      "aming": 2685,
      "contri": 2686,
      "understanding": 2687,
      "series": 2688,
      "affectionate": 2689,
      "meaning": 2690,
      "songs": 2691,
      "profession": 2692,
      "repe": 2693,
      "fresh": 2694,
      "bouncy": 2695,
      "bought": 2696,
      "ride": 2697,
      "falling": 2698,
      "changes": 2699,
      "hide": 2700,
      "previous": 2701,
      "belong": 2702,
      "physical": 2703,
      "acy": 2704,
      "cross": 2705,
      "taste": 2706,
      "winter": 2707,
      "computer": 2708,
      "design": 2709,
      "games": 2710,
      "respond": 2711,
      "exercise": 2712,
      "itter": 2713,
      "active": 2714,
      "rout": 2715,
      "tad": 2716,
      "terribly": 2717,
      "compe": 2718,
      "loves": 2719,
      "older": 2720,
      "ancy": 2721,
      "logy": 2722,
      "student": 2723,
      "considerate": 2724,
      "normally": 2725,
      "suggest": 2726,
      "acking": 2727,
      "urge": 2728,
      "pressed": 2729,
      "standing": 2730,
      "stronger": 2731,
      "relationships": 2732,
      "discuss": 2733,
      "ded": 2734,
      "aggrav": 2735,
      "manage": 2736,
      "sens": 2737,
      "depression": 2738,
      "changed": 2739,
      "afternoon": 2740,
      "accomplish": 2741,
      "psy": 2742,
      "attit": 2743,
      "covered": 2744,
      "worst": 2745,
      "likely": 2746,
      "gg": 2747,
      "lazy": 2748,
      "clu": 2749,
      "fiel": 2750,
      "furious": 2751,
      "sunday": 2752,
      "window": 2753,
      "nearly": 2754,
      "jes": 2755,
      "none": 2756,
      "tho": 2757,
      "experienced": 2758,
      "teacher": 2759,
      "practice": 2760,
      "service": 2761,
      "died": 2762,
      "lied": 2763,
      "shows": 2764,
      "mission": 2765,
      "bum": 2766,
      "challenge": 2767,
      "inking": 2768,
      "perfor": 2769,
      "overwhelming": 2770,
      "gar": 2771,
      "hol": 2772,
      "freed": 2773,
      "himself": 2774,
      "throughout": 2775,
      "interested": 2776,
      "large": 2777,
      "send": 2778,
      "resigned": 2779,
      "pal": 2780,
      "assu": 2781,
      "local": 2782,
      "ya": 2783,
      "ina": 2784,
      "obviously": 2785,
      "quil": 2786,
      "fire": 2787,
      "approach": 2788,
      "natural": 2789,
      "itude": 2790,
      "subject": 2791,
      "study": 2792,
      "hosp": 2793,
      "goal": 2794,
      "appreciated": 2795,
      "received": 2796,
      "force": 2797,
      "aggravated": 2798,
      "lunch": 2799,
      "potenti": 2800,
      "draw": 2801,
      "scar": 2802,
      "chat": 2803,
      "turning": 2804,
      "advant": 2805,
      "ado": 2806,
      "role": 2807,
      "morose": 2808,
      "entirely": 2809,
      "bing": 2810,
      "whine": 2811,
      "shame": 2812,
      "parts": 2813,
      "further": 2814,
      "mbers": 2815,
      "sco": 2816,
      "lady": 2817,
      "attend": 2818,
      "sport": 2819,
      "talked": 2820,
      "blue": 2821,
      "ridiculous": 2822,
      "task": 2823,
      "cast": 2824,
      "agu": 2825,
      "silly": 2826,
      "ieve": 2827,
      "cles": 2828,
      "camp": 2829,
      "became": 2830,
      "perfectly": 2831,
      "flat": 2832,
      "claim": 2833,
      "vicious": 2834,
      "shoes": 2835,
      "ingly": 2836,
      "lip": 2837,
      "based": 2838,
      "nap": 2839,
      "history": 2840,
      "train": 2841,
      "response": 2842,
      "ail": 2843,
      "nobody": 2844,
      "satur": 2845,
      "involved": 2846,
      "equ": 2847,
      "rock": 2848,
      "blogs": 2849,
      "univers": 2850,
      "struggling": 2851,
      "aspe": 2852,
      "sorrow": 2853,
      "liar": 2854,
      "idual": 2855,
      "bother": 2856,
      "teaching": 2857,
      "nes": 2858,
      "contact": 2859,
      "hospital": 2860,
      "dig": 2861,
      "ran": 2862,
      "fed": 2863,
      "arm": 2864,
      "indiv": 2865,
      "medic": 2866,
      "prof": 2867,
      "message": 2868,
      "journal": 2869,
      "similar": 2870,
      "hearing": 2871,
      "term": 2872,
      "fault": 2873,
      "pregnancy": 2874,
      "riage": 2875,
      "english": 2876,
      "text": 2877,
      "vest": 2878,
      "clearly": 2879,
      "shot": 2880,
      "holding": 2881,
      "regret": 2882,
      "swi": 2883,
      "zz": 2884,
      "final": 2885,
      "driving": 2886,
      "fle": 2887,
      "workout": 2888,
      "handsome": 2889,
      "ties": 2890,
      "married": 2891,
      "fash": 2892,
      "arily": 2893,
      "heav": 2894,
      "dom": 2895,
      "male": 2896,
      "random": 2897,
      "benef": 2898,
      "motivated": 2899,
      "secret": 2900,
      "bes": 2901,
      "dear": 2902,
      "betrayed": 2903,
      "dered": 2904,
      "opinion": 2905,
      "fy": 2906,
      "fans": 2907,
      "gut": 2908,
      "habit": 2909,
      "admired": 2910,
      "jesus": 2911,
      "freedom": 2912,
      "fashion": 2913,
      "match": 2914,
      "jun": 2915,
      "lived": 2916,
      "nights": 2917,
      "passion": 2918,
      "played": 2919,
      "pieces": 2920,
      "eventually": 2921,
      "email": 2922,
      "recor": 2923,
      "lets": 2924,
      "energ": 2925,
      "gym": 2926,
      "environment": 2927,
      "attitude": 2928,
      "overall": 2929,
      "ief": 2930,
      "spec": 2931,
      "size": 2932,
      "orig": 2933,
      "gue": 2934,
      "advice": 2935,
      "gt": 2936,
      "bot": 2937,
      "plans": 2938,
      "epis": 2939,
      "drug": 2940,
      "squ": 2941,
      "decide": 2942,
      "shopping": 2943,
      "connected": 2944,
      "individual": 2945,
      "repressed": 2946,
      "hey": 2947,
      "girlfriend": 2948,
      "members": 2949,
      "neuro": 2950,
      "version": 2951,
      "ison": 2952,
      "excite": 2953,
      "bud": 2954,
      "sely": 2955,
      "basically": 2956,
      "ians": 2957,
      "cos": 2958,
      "choices": 2959,
      "staying": 2960,
      "decisive": 2961,
      "sched": 2962,
      "forgive": 2963,
      "plus": 2964,
      "cycle": 2965,
      "hat": 2966,
      "tex": 2967,
      "ified": 2968,
      "contr": 2969,
      "monday": 2970,
      "barely": 2971,
      "quality": 2972,
      "bul": 2973,
      "fell": 2974,
      "pretend": 2975,
      "spl": 2976,
      "ges": 2977,
      "camer": 2978,
      "mr": 2979,
      "mate": 2980,
      "unable": 2981,
      "held": 2982,
      "inspir": 2983,
      "vac": 2984,
      "indecisive": 2985,
      "alled": 2986,
      "shut": 2987,
      "created": 2988,
      "crow": 2989,
      "mic": 2990,
      "ram": 2991,
      "sour": 2992,
      "note": 2993,
      "tors": 2994,
      "excuse": 2995,
      "bath": 2996,
      "roo": 2997,
      "hole": 2998,
      "inely": 2999,
      "image": 3000,
      "slut": 3001,
      "wers": 3002,
      "author": 3003,
      "ises": 3004,
      "tered": 3005,
      "sexual": 3006,
      "excitement": 3007,
      "bright": 3008,
      "prefer": 3009,
      "anywhere": 3010,
      "overly": 3011,
      "whiney": 3012,
      "iled": 3013,
      "prin": 3014,
      "origin": 3015,
      "enraged": 3016,
      "neck": 3017,
      "humor": 3018,
      "product": 3019,
      "drinking": 3020,
      "saturday": 3021,
      "eth": 3022,
      "ctly": 3023,
      "connect": 3024,
      "wedding": 3025,
      "hungry": 3026,
      "gaz": 3027,
      "heat": 3028,
      "neigh": 3029,
      "lap": 3030,
      "partner": 3031,
      "sensit": 3032,
      "language": 3033,
      "gly": 3034,
      "deed": 3035,
      "marriage": 3036,
      "neglectful": 3037,
      "sand": 3038,
      "treas": 3039,
      "lion": 3040,
      "mum": 3041,
      "therefore": 3042,
      "rup": 3043,
      "ivity": 3044,
      "bla": 3045,
      "ley": 3046,
      "ceed": 3047,
      "terms": 3048,
      "easier": 3049,
      "following": 3050,
      "wast": 3051,
      "bear": 3052,
      "somebody": 3053,
      "media": 3054,
      "bree": 3055,
      "pound": 3056,
      "total": 3057,
      "spite": 3058,
      "sweat": 3059,
      "belief": 3060,
      "field": 3061,
      "wered": 3062,
      "comb": 3063,
      "protected": 3064,
      "achieve": 3065,
      "kiss": 3066,
      "patient": 3067,
      "dee": 3068,
      "diet": 3069,
      "research": 3070,
      "otherwise": 3071,
      "treated": 3072,
      "attempt": 3073,
      "scene": 3074,
      "ray": 3075,
      "asle": 3076,
      "account": 3077,
      "condition": 3078,
      "cand": 3079,
      "pi": 3080,
      "tiny": 3081,
      "ency": 3082,
      "fellow": 3083,
      "mass": 3084,
      "asleep": 3085,
      "lips": 3086,
      "hurts": 3087,
      "mater": 3088,
      "value": 3089,
      "decisions": 3090,
      "considering": 3091,
      "spring": 3092,
      "sky": 3093,
      "genuinely": 3094,
      "kne": 3095,
      "goals": 3096,
      "aint": 3097,
      "intro": 3098,
      "ko": 3099,
      "solu": 3100,
      "mble": 3101,
      "outgoing": 3102,
      "classes": 3103,
      "twitter": 3104,
      "university": 3105,
      "bunch": 3106,
      "session": 3107,
      "highly": 3108,
      "american": 3109,
      "neurotic": 3110,
      "ban": 3111,
      "edge": 3112,
      "chose": 3113,
      "govern": 3114,
      "brand": 3115,
      "green": 3116,
      "disgust": 3117,
      "ours": 3118,
      "priv": 3119,
      "skills": 3120,
      "heavy": 3121,
      "bby": 3122,
      "lift": 3123,
      "worthy": 3124,
      "bike": 3125,
      "fingers": 3126,
      "prepared": 3127,
      "rush": 3128,
      "peoples": 3129,
      "wood": 3130,
      "coun": 3131,
      "drop": 3132,
      "capable": 3133,
      "tta": 3134,
      "minist": 3135,
      "publ": 3136,
      "interview": 3137,
      "example": 3138,
      "report": 3139,
      "gard": 3140,
      "capt": 3141,
      "evol": 3142,
      "vies": 3143,
      "corre": 3144,
      "floor": 3145,
      "sequ": 3146,
      "cop": 3147,
      "prov": 3148,
      "actual": 3149,
      "ization": 3150,
      "ham": 3151,
      "mirr": 3152,
      "therap": 3153,
      "save": 3154,
      "loud": 3155,
      "sore": 3156,
      "shall": 3157,
      "bow": 3158,
      "understood": 3159,
      "dun": 3160,
      "snow": 3161,
      "sci": 3162,
      "elling": 3163,
      "pained": 3164,
      "responsibility": 3165,
      "six": 3166,
      "recomm": 3167,
      "onic": 3168,
      "grown": 3169,
      "photograph": 3170,
      "drun": 3171,
      "aren": 3172,
      "fal": 3173,
      "rar": 3174,
      "third": 3175,
      "instant": 3176,
      "movies": 3177,
      "showing": 3178,
      "fearless": 3179,
      "circum": 3180,
      "plac": 3181,
      "shower": 3182,
      "ffic": 3183,
      "allowing": 3184,
      "dealing": 3185,
      "writer": 3186,
      "chick": 3187,
      "kn": 3188,
      "cares": 3189,
      "finger": 3190,
      "bil": 3191,
      "blow": 3192,
      "cake": 3193,
      "member": 3194,
      "till": 3195,
      "height": 3196,
      "thinks": 3197,
      "ignor": 3198,
      "apparent": 3199,
      "letter": 3200,
      "waking": 3201,
      "graceful": 3202,
      "ker": 3203,
      "mand": 3204,
      "afterwards": 3205,
      "centr": 3206,
      "site": 3207,
      "tough": 3208,
      "poli": 3209,
      "aff": 3210,
      "judge": 3211,
      "hadnt": 3212,
      "chocol": 3213,
      "harder": 3214,
      "athy": 3215,
      "familiar": 3216,
      "improve": 3217,
      "awake": 3218,
      "sorts": 3219,
      "planning": 3220,
      "projects": 3221,
      "chocolate": 3222,
      "oper": 3223,
      "pity": 3224,
      "ror": 3225,
      "compared": 3226,
      "changing": 3227,
      "radi": 3228,
      "buying": 3229,
      "gods": 3230,
      "ificant": 3231,
      "novel": 3232,
      "wild": 3233,
      "goo": 3234,
      "ignore": 3235,
      "meal": 3236,
      "fla": 3237,
      "circumst": 3238,
      "blame": 3239,
      "remain": 3240,
      "aster": 3241,
      "closer": 3242,
      "products": 3243,
      "purch": 3244,
      "balance": 3245,
      "confess": 3246,
      "giggly": 3247,
      "ctions": 3248,
      "hurting": 3249,
      "gratitude": 3250,
      "contribut": 3251,
      "believ": 3252,
      "corner": 3253,
      "screen": 3254,
      "dating": 3255,
      "gun": 3256,
      "invest": 3257,
      "forced": 3258,
      "magic": 3259,
      "tea": 3260,
      "joke": 3261,
      "accomplished": 3262,
      "bird": 3263,
      "batt": 3264,
      "ony": 3265,
      "everybody": 3266,
      "sav": 3267,
      "breeze": 3268,
      "government": 3269,
      "mirror": 3270,
      "rarely": 3271,
      "ja": 3272,
      "jer": 3273,
      "pes": 3274,
      "shif": 3275,
      "mixed": 3276,
      "building": 3277,
      "slutty": 3278,
      "scri": 3279,
      "tag": 3280,
      "keeps": 3281,
      "satisf": 3282,
      "mates": 3283,
      "potential": 3284,
      "aband": 3285,
      "joh": 3286,
      "speaking": 3287,
      "dying": 3288,
      "ners": 3289,
      "forgot": 3290,
      "pet": 3291,
      "shirt": 3292,
      "dude": 3293,
      "offic": 3294,
      "hardly": 3295,
      "pursu": 3296,
      "particip": 3297,
      "waste": 3298,
      "grab": 3299,
      "creating": 3300,
      "efforts": 3301,
      "sugar": 3302,
      "sensitive": 3303,
      "abandon": 3304,
      "kitch": 3305,
      "pm": 3306,
      "sion": 3307,
      "span": 3308,
      "encourage": 3309,
      "performan": 3310,
      "cam": 3311,
      "stor": 3312,
      "spective": 3313,
      "ode": 3314,
      "atively": 3315,
      "consu": 3316,
      "pot": 3317,
      "relief": 3318,
      "schedu": 3319,
      "indeed": 3320,
      "ature": 3321,
      "outfit": 3322,
      "commit": 3323,
      "cried": 3324,
      "memory": 3325,
      "nut": 3326,
      "sight": 3327,
      "shared": 3328,
      "painting": 3329,
      "throat": 3330,
      "heaven": 3331,
      "lines": 3332,
      "cape": 3333,
      "kitchen": 3334,
      "added": 3335,
      "focused": 3336,
      "camera": 3337,
      "gas": 3338,
      "tch": 3339,
      "related": 3340,
      "frequ": 3341,
      "necessary": 3342,
      "behavior": 3343,
      "ung": 3344,
      "quo": 3345,
      "cheer": 3346,
      "gold": 3347,
      "shed": 3348,
      "audience": 3349,
      "mn": 3350,
      "web": 3351,
      "bott": 3352,
      "pride": 3353,
      "picked": 3354,
      "receive": 3355,
      "herself": 3356,
      "experiencing": 3357,
      "wine": 3358,
      "garden": 3359,
      "tool": 3360,
      "shine": 3361,
      "serve": 3362,
      "figured": 3363,
      "zing": 3364,
      "recall": 3365,
      "aging": 3366,
      "join": 3367,
      "slept": 3368,
      "warmth": 3369,
      "article": 3370,
      "tro": 3371,
      "unt": 3372,
      "compan": 3373,
      "paid": 3374,
      "laughing": 3375,
      "professional": 3376,
      "cred": 3377,
      "ays": 3378,
      "butter": 3379,
      "relate": 3380,
      "option": 3381,
      "points": 3382,
      "education": 3383,
      "sac": 3384,
      "wit": 3385,
      "reaction": 3386,
      "core": 3387,
      "mild": 3388,
      "grew": 3389,
      "protect": 3390,
      "including": 3391,
      "strangely": 3392,
      "ana": 3393,
      "ences": 3394,
      "suck": 3395,
      "button": 3396,
      "breathe": 3397,
      "ka": 3398,
      "sam": 3399,
      "armed": 3400,
      "ford": 3401,
      "raise": 3402,
      "promise": 3403,
      "effects": 3404,
      "weve": 3405,
      "deb": 3406,
      "provide": 3407,
      "ists": 3408,
      "typing": 3409,
      "families": 3410,
      "separ": 3411,
      "likes": 3412,
      "adult": 3413,
      "cream": 3414,
      "fro": 3415,
      "gers": 3416,
      "accident": 3417,
      "init": 3418,
      "confli": 3419,
      "childhood": 3420,
      "neighbor": 3421,
      "ends": 3422,
      "trad": 3423,
      "starts": 3424,
      "defective": 3425,
      "reminded": 3426,
      "teachers": 3427,
      "properly": 3428,
      "cro": 3429,
      "tun": 3430,
      "gotta": 3431,
      "bringing": 3432,
      "steps": 3433,
      "holidays": 3434,
      "babies": 3435,
      "vision": 3436,
      "intention": 3437,
      "fish": 3438,
      "cancer": 3439,
      "shouldn": 3440,
      "refle": 3441,
      "tells": 3442,
      "mount": 3443,
      "exper": 3444,
      "perspective": 3445,
      "chosen": 3446,
      "answers": 3447,
      "christian": 3448,
      "surrounded": 3449,
      "whose": 3450,
      "grade": 3451,
      "nause": 3452,
      "reached": 3453,
      "practic": 3454,
      "john": 3455,
      "gree": 3456,
      "reci": 3457,
      "mester": 3458,
      "doll": 3459,
      "distance": 3460,
      "headache": 3461,
      "yoga": 3462,
      "episode": 3463,
      "roy": 3464,
      "obli": 3465,
      "idiot": 3466,
      "opinions": 3467,
      "kis": 3468,
      "atic": 3469,
      "cost": 3470,
      "fighting": 3471,
      "chair": 3472,
      "impo": 3473,
      "release": 3474,
      "glass": 3475,
      "occur": 3476,
      "concerned": 3477,
      "staff": 3478,
      "album": 3479,
      "forgotten": 3480,
      "shi": 3481,
      "common": 3482,
      "impress": 3483,
      "cuz": 3484,
      "stayed": 3485,
      "base": 3486,
      "folks": 3487,
      "beach": 3488,
      "cher": 3489,
      "mbled": 3490,
      "couch": 3491,
      "universe": 3492,
      "rew": 3493,
      "caused": 3494,
      "pol": 3495,
      "pleasure": 3496,
      "judged": 3497,
      "ordin": 3498,
      "ception": 3499,
      "twice": 3500,
      "mur": 3501,
      "youve": 3502,
      "realised": 3503,
      "finan": 3504,
      "park": 3505,
      "younger": 3506,
      "pin": 3507,
      "ats": 3508,
      "despair": 3509,
      "america": 3510,
      "anticip": 3511,
      "swim": 3512,
      "pace": 3513,
      "shape": 3514,
      "gradu": 3515,
      "schedule": 3516,
      "nic": 3517,
      "tree": 3518,
      "van": 3519,
      "prove": 3520,
      "favour": 3521,
      "bottom": 3522,
      "maint": 3523,
      "elled": 3524,
      "failed": 3525,
      "details": 3526,
      "maintain": 3527,
      "ory": 3528,
      "anted": 3529,
      "angered": 3530,
      "images": 3531,
      "gifts": 3532,
      "gay": 3533,
      "lin": 3534,
      "itation": 3535,
      "ague": 3536,
      "lesson": 3537,
      "animals": 3538,
      "addic": 3539,
      "religion": 3540,
      "vin": 3541,
      "alot": 3542,
      "pper": 3543,
      "drunk": 3544,
      "false": 3545,
      "vert": 3546,
      "ada": 3547,
      "unprotected": 3548,
      "areas": 3549,
      "concentr": 3550,
      "treatment": 3551,
      "san": 3552,
      "atta": 3553,
      "reader": 3554,
      "expectations": 3555,
      "panic": 3556,
      "communic": 3557,
      "kno": 3558,
      "identi": 3559,
      "indul": 3560,
      "quit": 3561,
      "consist": 3562,
      "cards": 3563,
      "energized": 3564,
      "recommend": 3565,
      "flaw": 3566,
      "han": 3567,
      "ury": 3568,
      "makeup": 3569,
      "frank": 3570,
      "sensation": 3571,
      "ches": 3572,
      "coll": 3573,
      "unsuccessful": 3574,
      "fru": 3575,
      "breast": 3576,
      "studying": 3577,
      "surprise": 3578,
      "club": 3579,
      "performance": 3580,
      "anal": 3581,
      "alarmed": 3582,
      "dece": 3583,
      "pump": 3584,
      "curity": 3585,
      "moder": 3586,
      "annoying": 3587,
      "custo": 3588,
      "mul": 3589,
      "uk": 3590,
      "wis": 3591,
      "access": 3592,
      "mothers": 3593,
      "various": 3594,
      "national": 3595,
      "jobs": 3596,
      "basis": 3597,
      "sna": 3598,
      "youll": 3599,
      "ards": 3600,
      "belly": 3601,
      "burden": 3602,
      "gery": 3603,
      "thanksgiving": 3604,
      "necessarily": 3605,
      "advantage": 3606,
      "fly": 3607,
      "wand": 3608,
      "coo": 3609,
      "function": 3610,
      "breakfast": 3611,
      "hanging": 3612,
      "tranquil": 3613,
      "circumstances": 3614,
      "degree": 3615,
      "mpy": 3616,
      "hero": 3617,
      "headed": 3618,
      "drama": 3619,
      "mistake": 3620,
      "instantly": 3621,
      "vid": 3622,
      "zo": 3623,
      "sole": 3624,
      "tively": 3625,
      "ultim": 3626,
      "indust": 3627,
      "complaining": 3628,
      "arrived": 3629,
      "increasingly": 3630,
      "vacation": 3631,
      "oth": 3632,
      "everywhere": 3633,
      "brings": 3634,
      "planned": 3635,
      "statement": 3636,
      "existence": 3637,
      "continued": 3638,
      "apologize": 3639,
      "original": 3640,
      "radiant": 3641,
      "dar": 3642,
      "uses": 3643,
      "passing": 3644,
      "vote": 3645,
      "wishing": 3646,
      "spiritual": 3647,
      "avail": 3648,
      "placed": 3649,
      "aur": 3650,
      "dit": 3651,
      "requ": 3652,
      "auto": 3653,
      "frustration": 3654,
      "sexy": 3655,
      "psycho": 3656,
      "jack": 3657,
      "aside": 3658,
      "bered": 3659,
      "embrace": 3660,
      "routine": 3661,
      "gin": 3662,
      "mour": 3663,
      "apartment": 3664,
      "grief": 3665,
      "cate": 3666,
      "reve": 3667,
      "liber": 3668,
      "kets": 3669,
      "contemp": 3670,
      "sition": 3671,
      "bru": 3672,
      "movement": 3673,
      "ey": 3674,
      "abilities": 3675,
      "master": 3676,
      "urs": 3677,
      "discovered": 3678,
      "manner": 3679,
      "cheated": 3680,
      "breaking": 3681,
      "pulled": 3682,
      "muscles": 3683,
      "climb": 3684,
      "setting": 3685,
      "pos": 3686,
      "len": 3687,
      "zer": 3688,
      "update": 3689,
      "dismay": 3690,
      "freak": 3691,
      "incredible": 3692,
      "depth": 3693,
      "material": 3694,
      "cloud": 3695,
      "pushing": 3696,
      "rant": 3697,
      "meas": 3698,
      "model": 3699,
      "neither": 3700,
      "bat": 3701,
      "justice": 3702,
      "conside": 3703,
      "burn": 3704,
      "becomes": 3705,
      "paying": 3706,
      "source": 3707,
      "duty": 3708,
      "nam": 3709,
      "demand": 3710,
      "guest": 3711,
      "clar": 3712,
      "block": 3713,
      "treasured": 3714,
      "spiteful": 3715,
      "hall": 3716,
      "speed": 3717,
      "reflect": 3718,
      "opened": 3719,
      "prior": 3720,
      "paint": 3721,
      "powerful": 3722,
      "settled": 3723,
      "desperately": 3724,
      "solution": 3725,
      "considered": 3726,
      "mbered": 3727,
      "scal": 3728,
      "feelin": 3729,
      "libr": 3730,
      "refre": 3731,
      "price": 3732,
      "deli": 3733,
      "bound": 3734,
      "socially": 3735,
      "enty": 3736,
      "plenty": 3737,
      "background": 3738,
      "decor": 3739,
      "freaking": 3740,
      "activities": 3741,
      "introdu": 3742,
      "jap": 3743,
      "zone": 3744,
      "independ": 3745,
      "altern": 3746,
      "rob": 3747,
      "drag": 3748,
      "appropri": 3749,
      "dogs": 3750,
      "satisfaction": 3751,
      "sucks": 3752,
      "shoulder": 3753,
      "adding": 3754,
      "opportun": 3755,
      "risk": 3756,
      "recognize": 3757,
      "user": 3758,
      "anybody": 3759,
      "ets": 3760,
      "painful": 3761,
      "players": 3762,
      "calls": 3763,
      "bod": 3764,
      "sele": 3765,
      "swear": 3766,
      "higher": 3767,
      "filling": 3768,
      "dat": 3769,
      "pred": 3770,
      "sell": 3771,
      "sphere": 3772,
      "realise": 3773,
      "kin": 3774,
      "tel": 3775,
      "ali": 3776,
      "moms": 3777,
      "ourselves": 3778,
      "sake": 3779,
      "motivation": 3780,
      "available": 3781,
      "lli": 3782,
      "stare": 3783,
      "chi": 3784,
      "ador": 3785,
      "west": 3786,
      "aches": 3787,
      "typic": 3788,
      "restaur": 3789,
      "prayer": 3790,
      "private": 3791,
      "mountain": 3792,
      "imposs": 3793,
      "fting": 3794,
      "ution": 3795,
      "ased": 3796,
      "compli": 3797,
      "impact": 3798,
      "bull": 3799,
      "player": 3800,
      "valid": 3801,
      "foods": 3802,
      "personality": 3803,
      "mistakes": 3804,
      "record": 3805,
      "eve": 3806,
      "pants": 3807,
      "scr": 3808,
      "associ": 3809,
      "suit": 3810,
      "expo": 3811,
      "print": 3812,
      "firm": 3813,
      "market": 3814,
      "reply": 3815,
      "bank": 3816,
      "items": 3817,
      "chap": 3818,
      "smooth": 3819,
      "writers": 3820,
      "pages": 3821,
      "tori": 3822,
      "entry": 3823,
      "holy": 3824,
      "ify": 3825,
      "affect": 3826,
      "opening": 3827,
      "cleaning": 3828,
      "equally": 3829,
      "inspiration": 3830,
      "apparently": 3831,
      "twe": 3832,
      "whis": 3833,
      "wimpy": 3834,
      "logical": 3835,
      "shoot": 3836,
      "bigger": 3837,
      "below": 3838,
      "significant": 3839,
      "responsible": 3840,
      "fits": 3841,
      "mit": 3842,
      "reddit": 3843,
      "disliked": 3844,
      "helpful": 3845,
      "closed": 3846,
      "temper": 3847,
      "flash": 3848,
      "worrying": 3849,
      "desperate": 3850,
      "rous": 3851,
      "discover": 3852,
      "werent": 3853,
      "craft": 3854,
      "adventure": 3855,
      "expecting": 3856,
      "benevol": 3857,
      "naturally": 3858,
      "industry": 3859,
      "dismayed": 3860,
      "hill": 3861,
      "sne": 3862,
      "alco": 3863,
      "soli": 3864,
      "unwanted": 3865,
      "cies": 3866,
      "remembered": 3867,
      "lonel": 3868,
      "regardless": 3869,
      "sorrowful": 3870,
      "correct": 3871,
      "awhile": 3872,
      "spre": 3873,
      "influ": 3874,
      "depart": 3875,
      "izz": 3876,
      "cling": 3877,
      "blogger": 3878,
      "conversations": 3879,
      "opportunities": 3880,
      "faces": 3881,
      "ery": 3882,
      "concept": 3883,
      "lights": 3884,
      "techno": 3885,
      "google": 3886,
      "bottle": 3887,
      "request": 3888,
      "tone": 3889,
      "whil": 3890,
      "youth": 3891,
      "mainly": 3892,
      "compassion": 3893,
      "switch": 3894,
      "chu": 3895,
      "ching": 3896,
      "tte": 3897,
      "fold": 3898,
      "desk": 3899,
      "smiling": 3900,
      "craving": 3901,
      "mary": 3902,
      "stretch": 3903,
      "intense": 3904,
      "dred": 3905,
      "accep": 3906,
      "relatively": 3907,
      "exciting": 3908,
      "turns": 3909,
      "surprising": 3910,
      "loneliness": 3911,
      "pink": 3912,
      "sting": 3913,
      "resist": 3914,
      "ibilities": 3915,
      "picking": 3916,
      "horribly": 3917,
      "artists": 3918,
      "battle": 3919,
      "accepting": 3920,
      "brow": 3921,
      "zed": 3922,
      "abuse": 3923,
      "lessons": 3924,
      "gained": 3925,
      "besides": 3926,
      "benevolent": 3927,
      "whilst": 3928,
      "bun": 3929,
      "suspect": 3930,
      "shel": 3931,
      "via": 3932,
      "angel": 3933,
      "singing": 3934,
      "majority": 3935,
      "critic": 3936,
      "cket": 3937,
      "stair": 3938,
      "asty": 3939,
      "everytime": 3940,
      "surgery": 3941,
      "omg": 3942,
      "attractive": 3943,
      "oddly": 3944,
      "bond": 3945,
      "dd": 3946,
      "glo": 3947,
      "returned": 3948,
      "happier": 3949,
      "teenager": 3950,
      "specific": 3951,
      "illness": 3952,
      "bye": 3953,
      "leader": 3954,
      "breathing": 3955,
      "ially": 3956,
      "mc": 3957,
      "phas": 3958,
      "vy": 3959,
      "escape": 3960,
      "rules": 3961,
      "occasionally": 3962,
      "multi": 3963,
      "refer": 3964,
      "seat": 3965,
      "tips": 3966,
      "docu": 3967,
      "struct": 3968,
      "kinds": 3969,
      "colour": 3970,
      "employ": 3971,
      "cooking": 3972,
      "jam": 3973,
      "ption": 3974,
      "semester": 3975,
      "creep": 3976,
      "fears": 3977,
      "drawing": 3978,
      "bbing": 3979,
      "political": 3980,
      "blah": 3981,
      "wra": 3982,
      "female": 3983,
      "concl": 3984,
      "needing": 3985,
      "workers": 3986,
      "succeed": 3987,
      "scream": 3988,
      "million": 3989,
      "aspects": 3990,
      "ki": 3991,
      "ening": 3992,
      "enthus": 3993,
      "nose": 3994,
      "suic": 3995,
      "brush": 3996,
      "hopes": 3997,
      "gross": 3998,
      "matters": 3999,
      "animal": 4000,
      "deeper": 4001,
      "dare": 4002,
      "toms": 4003,
      "stream": 4004,
      "worn": 4005,
      "tues": 4006,
      "unfortunately": 4007,
      "lud": 4008,
      "thurs": 4009,
      "ute": 4010,
      "coz": 4011,
      "bug": 4012,
      "facing": 4013,
      "regarding": 4014,
      "disgusting": 4015,
      "credit": 4016,
      "enthusi": 4017,
      "bash": 4018,
      "cel": 4019,
      "dread": 4020,
      "dressed": 4021,
      "lt": 4022,
      "cheek": 4023,
      "differently": 4024,
      "included": 4025,
      "splend": 4026,
      "witness": 4027,
      "sea": 4028,
      "oughly": 4029,
      "courage": 4030,
      "celebrate": 4031,
      "scary": 4032,
      "spread": 4033,
      "spark": 4034,
      "teeth": 4035,
      "blessings": 4036,
      "exams": 4037,
      "pounds": 4038,
      "abs": 4039,
      "seek": 4040,
      "appalled": 4041,
      "decent": 4042,
      "marath": 4043,
      "dram": 4044,
      "praying": 4045,
      "hundred": 4046,
      "include": 4047,
      "competit": 4048,
      "impossible": 4049,
      "ludic": 4050,
      "jan": 4051,
      "ron": 4052,
      "sending": 4053,
      "petri": 4054,
      "ishing": 4055,
      "resses": 4056,
      "unique": 4057,
      "killed": 4058,
      "argument": 4059,
      "assume": 4060,
      "wasted": 4061,
      "pushed": 4062,
      "mob": 4063,
      "imm": 4064,
      "spin": 4065,
      "stone": 4066,
      "levels": 4067,
      "favourite": 4068,
      "mir": 4069,
      "vagu": 4070,
      "wide": 4071,
      "loose": 4072,
      "outs": 4073,
      "dislike": 4074,
      "stranger": 4075,
      "hearts": 4076,
      "bling": 4077,
      "brown": 4078,
      "throwing": 4079,
      "rics": 4080,
      "petrified": 4081,
      "wid": 4082,
      "names": 4083,
      "cris": 4084,
      "chee": 4085,
      "defend": 4086,
      "views": 4087,
      "followed": 4088,
      "ludicrous": 4089,
      "aper": 4090,
      "vey": 4091,
      "section": 4092,
      "conven": 4093,
      "promo": 4094,
      "applic": 4095,
      "crack": 4096,
      "growth": 4097,
      "explained": 4098,
      "osite": 4099,
      "sisters": 4100,
      "walls": 4101,
      "carrying": 4102,
      "humorous": 4103,
      "mildly": 4104,
      "pure": 4105,
      "weigh": 4106,
      "president": 4107,
      "collection": 4108,
      "doctors": 4109,
      "bones": 4110,
      "phr": 4111,
      "showed": 4112,
      "police": 4113,
      "ai": 4114,
      "hip": 4115,
      "represent": 4116,
      "alo": 4117,
      "soph": 4118,
      "forth": 4119,
      "extend": 4120,
      "pool": 4121,
      "afford": 4122,
      "laid": 4123,
      "appointment": 4124,
      "disappointment": 4125,
      "opposite": 4126,
      "faster": 4127,
      "drugs": 4128,
      "therapy": 4129,
      "bon": 4130,
      "thous": 4131,
      "ato": 4132,
      "causing": 4133,
      "someones": 4134,
      "hasnt": 4135,
      "center": 4136,
      "dancing": 4137,
      "frankly": 4138,
      "tuesday": 4139,
      "ech": 4140,
      "instru": 4141,
      "rema": 4142,
      "sters": 4143,
      "verage": 4144,
      "acknowledge": 4145,
      "consequ": 4146,
      "quar": 4147,
      "iest": 4148,
      "lighter": 4149,
      "healing": 4150,
      "sympathy": 4151,
      "possibility": 4152,
      "wednes": 4153,
      "circle": 4154,
      "vaguely": 4155,
      "bio": 4156,
      "econ": 4157,
      "lean": 4158,
      "sold": 4159,
      "secure": 4160,
      "acqu": 4161,
      "ups": 4162,
      "evil": 4163,
      "naked": 4164,
      "resour": 4165,
      "ski": 4166,
      "effe": 4167,
      "aspect": 4168,
      "stairs": 4169,
      "thousand": 4170,
      "adjust": 4171,
      "prevent": 4172,
      "whos": 4173,
      "boss": 4174,
      "jeans": 4175,
      "prepare": 4176,
      "aim": 4177,
      "mac": 4178,
      "tour": 4179,
      "ender": 4180,
      "tension": 4181,
      "marks": 4182,
      "status": 4183,
      "expression": 4184,
      "hahaha": 4185,
      "groups": 4186,
      "pulling": 4187,
      "football": 4188,
      "assign": 4189,
      "presents": 4190,
      "survi": 4191,
      "planet": 4192,
      "harm": 4193,
      "benefit": 4194,
      "splendid": 4195,
      "emer": 4196,
      "sch": 4197,
      "asing": 4198,
      "agre": 4199,
      "empo": 4200,
      "touched": 4201,
      "ladies": 4202,
      "announ": 4203,
      "crowd": 4204,
      "document": 4205,
      "marathon": 4206,
      "hiding": 4207,
      "staring": 4208,
      "liking": 4209,
      "lifestyle": 4210,
      "compar": 4211,
      "crush": 4212,
      "addition": 4213,
      "states": 4214,
      "fruit": 4215,
      "pit": 4216,
      "tes": 4217,
      "wound": 4218,
      "stars": 4219,
      "ites": 4220,
      "formed": 4221,
      "doors": 4222,
      "laun": 4223,
      "colors": 4224,
      "rum": 4225,
      "reminds": 4226,
      "screaming": 4227,
      "sacri": 4228,
      "thursday": 4229,
      "asp": 4230,
      "minor": 4231,
      "safety": 4232,
      "dunno": 4233,
      "egg": 4234,
      "osing": 4235,
      "ws": 4236,
      "cock": 4237,
      "webs": 4238,
      "shar": 4239,
      "tear": 4240,
      "achieved": 4241,
      "london": 4242,
      "fantas": 4243,
      "extent": 4244,
      "encoun": 4245,
      "struggled": 4246,
      "regularly": 4247,
      "explore": 4248,
      "frequently": 4249,
      "oblig": 4250,
      "flying": 4251,
      "taught": 4252,
      "shoo": 4253,
      "silence": 4254,
      "feeding": 4255,
      "bbish": 4256,
      "wednesday": 4257,
      "nation": 4258,
      "feat": 4259,
      "aling": 4260,
      "moon": 4261,
      "adul": 4262,
      "wet": 4263,
      "sunshine": 4264,
      "tongue": 4265,
      "south": 4266,
      "expressing": 4267,
      "activity": 4268,
      "repeat": 4269,
      "script": 4270,
      "quote": 4271,
      "cit": 4272,
      "cough": 4273,
      "hilar": 4274,
      "ires": 4275,
      "anced": 4276,
      "ision": 4277,
      "aries": 4278,
      "acade": 4279,
      "und": 4280,
      "guard": 4281,
      "listened": 4282,
      "leading": 4283,
      "radio": 4284,
      "storm": 4285,
      "laundry": 4286,
      "sque": 4287,
      "security": 4288,
      "causes": 4289,
      "shoulders": 4290,
      "wondered": 4291,
      "mature": 4292,
      "ears": 4293,
      "biggest": 4294,
      "dropped": 4295,
      "predic": 4296,
      "alcohol": 4297,
      "ee": 4298,
      "yout": 4299,
      "ories": 4300,
      "lower": 4301,
      "settle": 4302,
      "appearance": 4303,
      "youtu": 4304,
      "cud": 4305,
      "font": 4306,
      "sis": 4307,
      "max": 4308,
      "shell": 4309,
      "symptoms": 4310,
      "riding": 4311,
      "strangers": 4312,
      "bathroom": 4313,
      "shift": 4314,
      "bill": 4315,
      "uce": 4316,
      "itll": 4317,
      "nails": 4318,
      "blind": 4319,
      "address": 4320,
      "elect": 4321,
      "humans": 4322,
      "aneously": 4323,
      "bread": 4324,
      "cous": 4325,
      "rise": 4326,
      "meat": 4327,
      "beer": 4328,
      "demon": 4329,
      "disagree": 4330,
      "overcome": 4331,
      "brid": 4332,
      "runs": 4333,
      "double": 4334,
      "insight": 4335,
      "jubil": 4336,
      "recipe": 4337,
      "cheese": 4338,
      "este": 4339,
      "leng": 4340,
      "fever": 4341,
      "ert": 4342,
      "alright": 4343,
      "raw": 4344,
      "raging": 4345,
      "assist": 4346,
      "obsess": 4347,
      "fficient": 4348,
      "ultimately": 4349,
      "technology": 4350,
      "ego": 4351,
      "refe": 4352,
      "magaz": 4353,
      "excl": 4354,
      "tage": 4355,
      "phi": 4356,
      "invited": 4357,
      "slip": 4358,
      "receiving": 4359,
      "uti": 4360,
      "ino": 4361,
      "rend": 4362,
      "meth": 4363,
      "loc": 4364,
      "raised": 4365,
      "tail": 4366,
      "speech": 4367,
      "homework": 4368,
      "bloggers": 4369,
      "bump": 4370,
      "messages": 4371,
      "machine": 4372,
      "gles": 4373,
      "owe": 4374,
      "beating": 4375,
      "iment": 4376,
      "hearted": 4377,
      "custom": 4378,
      "click": 4379,
      "library": 4380,
      "euro": 4381,
      "lly": 4382,
      "atmo": 4383,
      "perce": 4384,
      "bits": 4385,
      "realizing": 4386,
      "refuse": 4387,
      "distin": 4388,
      "serving": 4389,
      "cheap": 4390,
      "creativity": 4391,
      "laughed": 4392,
      "discussion": 4393,
      "data": 4394,
      "phase": 4395,
      "pour": 4396,
      "ale": 4397,
      "lest": 4398,
      "medical": 4399,
      "incident": 4400,
      "seconds": 4401,
      "directly": 4402,
      "enges": 4403,
      "restaurant": 4404,
      "mare": 4405,
      "react": 4406,
      "parties": 4407,
      "religious": 4408,
      "volun": 4409,
      "tradition": 4410,
      "december": 4411,
      "cab": 4412,
      "gence": 4413,
      "nasty": 4414,
      "plot": 4415,
      "rate": 4416,
      "vive": 4417,
      "insincere": 4418,
      "orient": 4419,
      "prepar": 4420,
      "lessly": 4421,
      "tax": 4422,
      "spoke": 4423,
      "believing": 4424,
      "cell": 4425,
      "fren": 4426,
      "kar": 4427,
      "recip": 4428,
      "unknown": 4429,
      "ulate": 4430,
      "compare": 4431,
      "begun": 4432,
      "committed": 4433,
      "videos": 4434,
      "challenges": 4435,
      "faced": 4436,
      "destroy": 4437,
      "friendships": 4438,
      "science": 4439,
      "solid": 4440,
      "mobile": 4441,
      "website": 4442,
      "reward": 4443,
      "chann": 4444,
      "abor": 4445,
      "demo": 4446,
      "surely": 4447,
      "charmed": 4448,
      "chicken": 4449,
      "length": 4450,
      "atmosphere": 4451,
      "station": 4452,
      "beside": 4453,
      "trail": 4454,
      "heading": 4455,
      "clothing": 4456,
      "trend": 4457,
      "hoped": 4458,
      "classroom": 4459,
      "nsive": 4460,
      "appropriate": 4461,
      "chill": 4462,
      "fulfilled": 4463,
      "vibr": 4464,
      "apple": 4465,
      "options": 4466,
      "wave": 4467,
      "brit": 4468,
      "bub": 4469,
      "wallow": 4470,
      "hypo": 4471,
      "racing": 4472,
      "combination": 4473,
      "knee": 4474,
      "abandoned": 4475,
      "average": 4476,
      "sno": 4477,
      "sla": 4478,
      "notes": 4479,
      "math": 4480,
      "exception": 4481,
      "hadn": 4482,
      "granted": 4483,
      "apply": 4484,
      "youtube": 4485,
      "jubilant": 4486,
      "rough": 4487,
      "zen": 4488,
      "loser": 4489,
      "mails": 4490,
      "shout": 4491,
      "nail": 4492,
      "glasses": 4493,
      "delet": 4494,
      "diag": 4495,
      "atives": 4496,
      "offered": 4497,
      "extreme": 4498,
      "laying": 4499,
      "thoroughly": 4500,
      "reviews": 4501,
      "sports": 4502,
      "solemn": 4503,
      "dign": 4504,
      "mm": 4505,
      "ense": 4506,
      "ids": 4507,
      "poet": 4508,
      "mbling": 4509,
      "rights": 4510,
      "sites": 4511,
      "crash": 4512,
      "expensive": 4513,
      "medication": 4514,
      "nof": 4515,
      "pon": 4516,
      "sts": 4517,
      "nove": 4518,
      "arts": 4519,
      "immen": 4520,
      "ollow": 4521,
      "acts": 4522,
      "releas": 4523,
      "yours": 4524,
      "shadow": 4525,
      "border": 4526,
      "transition": 4527,
      "brief": 4528,
      "limited": 4529,
      "medicine": 4530,
      "rooms": 4531,
      "method": 4532,
      "jac": 4533,
      "ulation": 4534,
      "essenti": 4535,
      "ilt": 4536,
      "seeming": 4537,
      "trapped": 4538,
      "mornings": 4539,
      "patience": 4540,
      "developed": 4541,
      "contribute": 4542,
      "modern": 4543,
      "surprisingly": 4544,
      "nofollow": 4545,
      "november": 4546,
      "ork": 4547,
      "nowhere": 4548,
      "rare": 4549,
      "hormon": 4550,
      "milk": 4551,
      "smoke": 4552,
      "customer": 4553,
      "esteem": 4554,
      "ior": 4555,
      "thir": 4556,
      "lil": 4557,
      "disease": 4558,
      "ridiculously": 4559,
      "copy": 4560,
      "scale": 4561,
      "sigh": 4562,
      "tall": 4563,
      "wrap": 4564,
      "cope": 4565,
      "indic": 4566,
      "reads": 4567,
      "goodness": 4568,
      "nightmare": 4569,
      "craw": 4570,
      "burning": 4571,
      "hotel": 4572,
      "admitted": 4573,
      "sexually": 4574,
      "brothers": 4575,
      "hence": 4576,
      "tation": 4577,
      "ani": 4578,
      "meals": 4579,
      "lyrics": 4580,
      "sets": 4581,
      "worries": 4582,
      "atest": 4583,
      "ival": 4584,
      "remembering": 4585,
      "matic": 4586,
      "greatly": 4587,
      "mommy": 4588,
      "deserves": 4589,
      "darkness": 4590,
      "detail": 4591,
      "volunte": 4592,
      "itor": 4593,
      "lam": 4594,
      "pher": 4595,
      "fected": 4596,
      "contain": 4597,
      "dump": 4598,
      "greatest": 4599,
      "charge": 4600,
      "studio": 4601,
      "films": 4602,
      "rolling": 4603,
      "mut": 4604,
      "nag": 4605,
      "femin": 4606,
      "stain": 4607,
      "itions": 4608,
      "myster": 4609,
      "unexpected": 4610,
      "iron": 4611,
      "aggress": 4612,
      "bliss": 4613,
      "horse": 4614,
      "greater": 4615,
      "parenting": 4616,
      "hyper": 4617,
      "feedback": 4618,
      "sentence": 4619,
      "brilli": 4620,
      "mart": 4621,
      "reck": 4622,
      "complic": 4623,
      "blan": 4624,
      "excell": 4625,
      "north": 4626,
      "deny": 4627,
      "admitting": 4628,
      "allows": 4629,
      "engage": 4630,
      "flowers": 4631,
      "thrown": 4632,
      "purchase": 4633,
      "flawless": 4634,
      "wisdom": 4635,
      "award": 4636,
      "oce": 4637,
      "reaching": 4638,
      "tie": 4639,
      "lock": 4640,
      "choosing": 4641,
      "grey": 4642,
      "subst": 4643,
      "legal": 4644,
      "clients": 4645,
      "drove": 4646,
      "finishing": 4647,
      "washing": 4648,
      "jerk": 4649,
      "ordinary": 4650,
      "hed": 4651,
      "sides": 4652,
      "intim": 4653,
      "lover": 4654,
      "former": 4655,
      "moody": 4656,
      "heels": 4657,
      "boat": 4658,
      "prospect": 4659,
      "surface": 4660,
      "concern": 4661,
      "tasks": 4662,
      "hatred": 4663,
      "chapter": 4664,
      "acle": 4665,
      "decl": 4666,
      "bite": 4667,
      "trade": 4668,
      "bookmark": 4669,
      "cramp": 4670,
      "checked": 4671,
      "honor": 4672,
      "drown": 4673,
      "streets": 4674,
      "savage": 4675,
      "awa": 4676,
      "tack": 4677,
      "vill": 4678,
      "noise": 4679,
      "seven": 4680,
      "accur": 4681,
      "bomb": 4682,
      "wore": 4683,
      "talks": 4684,
      "insane": 4685,
      "fabric": 4686,
      "prince": 4687,
      "department": 4688,
      "agreed": 4689,
      "hid": 4690,
      "yu": 4691,
      "lions": 4692,
      "perform": 4693,
      "anyways": 4694,
      "believed": 4695,
      "trig": 4696,
      "torn": 4697,
      "horror": 4698,
      "generation": 4699,
      "pics": 4700,
      "emplo": 4701,
      "intellect": 4702,
      "balls": 4703,
      "recovery": 4704,
      "difficul": 4705,
      "simult": 4706,
      "bashful": 4707,
      "snap": 4708,
      "vil": 4709,
      "ince": 4710,
      "ators": 4711,
      "ene": 4712,
      "partly": 4713,
      "skill": 4714,
      "object": 4715,
      "exhaust": 4716,
      "limit": 4717,
      "bang": 4718,
      "dess": 4719,
      "nar": 4720,
      "oil": 4721,
      "umb": 4722,
      "remo": 4723,
      "somed": 4724,
      "mao": 4725,
      "theyve": 4726,
      "tics": 4727,
      "startled": 4728,
      "rences": 4729,
      "fiction": 4730,
      "advantaged": 4731,
      "encounter": 4732,
      "ls": 4733,
      "nical": 4734,
      "mode": 4735,
      "entered": 4736,
      "irate": 4737,
      "saved": 4738,
      "goods": 4739,
      "goodbye": 4740,
      "trick": 4741,
      "plays": 4742,
      "sleepy": 4743,
      "eaten": 4744,
      "drawn": 4745,
      "leads": 4746,
      "financial": 4747,
      "chan": 4748,
      "champ": 4749,
      "upd": 4750,
      "romance": 4751,
      "moral": 4752,
      "surance": 4753,
      "trees": 4754,
      "learnt": 4755,
      "killing": 4756,
      "individuals": 4757,
      "communication": 4758,
      "unkind": 4759,
      "waves": 4760,
      "importance": 4761,
      "plane": 4762,
      "lands": 4763,
      "flowing": 4764,
      "aut": 4765,
      "cs": 4766,
      "mask": 4767,
      "range": 4768,
      "tast": 4769,
      "toler": 4770,
      "stro": 4771,
      "explan": 4772,
      "disadvantaged": 4773,
      "happily": 4774,
      "bedroom": 4775,
      "gather": 4776,
      "development": 4777,
      "agues": 4778,
      "habits": 4779,
      "citiz": 4780,
      "diagno": 4781,
      "simultaneously": 4782,
      "bare": 4783,
      "uary": 4784,
      "yard": 4785,
      "ende": 4786,
      "chine": 4787,
      "ulated": 4788,
      "plat": 4789,
      "letters": 4790,
      "skip": 4791,
      "skirt": 4792,
      "merely": 4793,
      "fallen": 4794,
      "pattern": 4795,
      "admire": 4796,
      "capture": 4797,
      "concentrate": 4798,
      "analy": 4799,
      "dust": 4800,
      "eight": 4801,
      "rs": 4802,
      "tent": 4803,
      "advert": 4804,
      "congrat": 4805,
      "types": 4806,
      "visiting": 4807,
      "vices": 4808,
      "prayers": 4809,
      "appeared": 4810,
      "roller": 4811,
      "focusing": 4812,
      "labor": 4813,
      "beliefs": 4814,
      "brilliant": 4815,
      "bay": 4816,
      "bast": 4817,
      "flight": 4818,
      "lmao": 4819,
      "nie": 4820,
      "domin": 4821,
      "upcoming": 4822,
      "relev": 4823,
      "mani": 4824,
      "talent": 4825,
      "glam": 4826,
      "awfully": 4827,
      "stepped": 4828,
      "clock": 4829,
      "identity": 4830,
      "interpre": 4831,
      "tons": 4832,
      "violence": 4833,
      "challenged": 4834,
      "genuine": 4835,
      "participate": 4836,
      "multiple": 4837,
      "cin": 4838,
      "fate": 4839,
      "pac": 4840,
      "twent": 4841,
      "inev": 4842,
      "plate": 4843,
      "produce": 4844,
      "basic": 4845,
      "imagined": 4846,
      "dreaming": 4847,
      "awareness": 4848,
      "previously": 4849,
      "counter": 4850,
      "employe": 4851,
      "chinese": 4852,
      "ived": 4853,
      "mmy": 4854,
      "tiness": 4855,
      "chip": 4856,
      "survive": 4857,
      "cutting": 4858,
      "reminder": 4859,
      "organization": 4860,
      "links": 4861,
      "june": 4862,
      "wasting": 4863,
      "anticipation": 4864,
      "tweet": 4865,
      "pil": 4866,
      "rior": 4867,
      "butt": 4868,
      "cting": 4869,
      "disci": 4870,
      "affair": 4871,
      "hello": 4872,
      "hellip": 4873,
      "vibe": 4874,
      "manip": 4875,
      "gling": 4876,
      "answered": 4877,
      "owner": 4878,
      "shots": 4879,
      "jealousy": 4880,
      "david": 4881,
      "latest": 4882,
      "complex": 4883,
      "searching": 4884,
      "arrive": 4885,
      "frame": 4886,
      "kore": 4887,
      "pursue": 4888,
      "measure": 4889,
      "width": 4890,
      "twenty": 4891,
      "pile": 4892,
      "ades": 4893,
      "pod": 4894,
      "trash": 4895,
      "uded": 4896,
      "puts": 4897,
      "presented": 4898,
      "supported": 4899,
      "completed": 4900,
      "wishes": 4901,
      "heavi": 4902,
      "categor": 4903,
      "reveal": 4904,
      "phrase": 4905,
      "fying": 4906,
      "kat": 4907,
      "pizz": 4908,
      "chris": 4909,
      "china": 4910,
      "pered": 4911,
      "sometime": 4912,
      "usive": 4913,
      "selling": 4914,
      "discomfort": 4915,
      "hubby": 4916,
      "humbled": 4917,
      "legit": 4918,
      "twist": 4919,
      "compliment": 4920,
      "adults": 4921,
      "emails": 4922,
      "hitting": 4923,
      "tat": 4924,
      "chic": 4925,
      "hehe": 4926,
      "fran": 4927,
      "confir": 4928,
      "trav": 4929,
      "shown": 4930,
      "profound": 4931,
      "commitment": 4932,
      "experiment": 4933,
      "application": 4934,
      "channel": 4935,
      "bible": 4936,
      "toss": 4937,
      "icking": 4938,
      "agon": 4939,
      "beings": 4940,
      "affected": 4941,
      "guide": 4942,
      "topics": 4943,
      "whisper": 4944,
      "ocean": 4945,
      "bic": 4946,
      "nse": 4947,
      "wat": 4948,
      "orm": 4949,
      "iff": 4950,
      "oked": 4951,
      "tick": 4952,
      "minim": 4953,
      "sadly": 4954,
      "careful": 4955,
      "sessions": 4956,
      "exposed": 4957,
      "suicide": 4958,
      "excellent": 4959,
      "dim": 4960,
      "hating": 4961,
      "iel": 4962,
      "mill": 4963,
      "slo": 4964,
      "scent": 4965,
      "theless": 4966,
      "stamp": 4967,
      "heck": 4968,
      "coach": 4969,
      "spr": 4970,
      "fron": 4971,
      "damage": 4972,
      "grocer": 4973,
      "attracted": 4974,
      "laptop": 4975,
      "europe": 4976,
      "pizza": 4977,
      "lacking": 4978,
      "toes": 4979,
      "chances": 4980,
      "tip": 4981,
      "outcome": 4982,
      "actor": 4983,
      "iced": 4984,
      "antly": 4985,
      "saving": 4986,
      "shock": 4987,
      "checking": 4988,
      "rub": 4989,
      "crimin": 4990,
      "pleasantly": 4991,
      "colleagues": 4992,
      "explaining": 4993,
      "recover": 4994,
      "signs": 4995,
      "independent": 4996,
      "bell": 4997,
      "dwell": 4998,
      "ji": 4999,
      "thy": 5000,
      "theme": 5001,
      "forgiven": 5002,
      "wheel": 5003,
      "heads": 5004,
      "emptiness": 5005,
      "numbers": 5006,
      "failing": 5007,
      "osity": 5008,
      "sale": 5009,
      "promised": 5010,
      "someday": 5011,
      "austr": 5012,
      "accor": 5013,
      "adays": 5014,
      "anytime": 5015,
      "theyll": 5016,
      "solve": 5017,
      "engaged": 5018,
      "behaviour": 5019,
      "mourn": 5020,
      "bodies": 5021,
      "bullshit": 5022,
      "shooting": 5023,
      "seemingly": 5024,
      "austral": 5025,
      "ffed": 5026,
      "veget": 5027,
      "nowadays": 5028,
      "desig": 5029,
      "sincer": 5030,
      "pains": 5031,
      "rule": 5032,
      "elses": 5033,
      "interrup": 5034,
      "element": 5035,
      "judg": 5036,
      "fathers": 5037,
      "attacked": 5038,
      "nurse": 5039,
      "repeated": 5040,
      "dramatic": 5041,
      "competition": 5042,
      "comparison": 5043,
      "poetry": 5044,
      "gam": 5045,
      "pas": 5046,
      "york": 5047,
      "zzy": 5048,
      "limp": 5049,
      "everyones": 5050,
      "sons": 5051,
      "suffe": 5052,
      "draft": 5053,
      "fortunate": 5054,
      "bags": 5055,
      "quietly": 5056,
      "politics": 5057,
      "knees": 5058,
      "attached": 5059,
      "kicking": 5060,
      "ost": 5061,
      "vom": 5062,
      "enthr": 5063,
      "itar": 5064,
      "sewing": 5065,
      "peers": 5066,
      "tooth": 5067,
      "foreign": 5068,
      "burst": 5069,
      "gia": 5070,
      "spoken": 5071,
      "smoking": 5072,
      "techni": 5073,
      "amongst": 5074,
      "dedic": 5075,
      "secretly": 5076,
      "neighborhood": 5077,
      "recipes": 5078,
      "gs": 5079,
      "hint": 5080,
      "xic": 5081,
      "infu": 5082,
      "returning": 5083,
      "tire": 5084,
      "rose": 5085,
      "ads": 5086,
      "catho": 5087,
      "waited": 5088,
      "cring": 5089,
      "built": 5090,
      "blessing": 5091,
      "election": 5092,
      "queen": 5093,
      "profess": 5094,
      "communicate": 5095,
      "flav": 5096,
      "james": 5097,
      "tools": 5098,
      "impression": 5099,
      "customers": 5100,
      "catholic": 5101,
      "fif": 5102,
      "smiles": 5103,
      "threw": 5104,
      "worship": 5105,
      "perverse": 5106,
      "item": 5107,
      "asshole": 5108,
      "moronic": 5109,
      "sinking": 5110,
      "restri": 5111,
      "famous": 5112,
      "saddened": 5113,
      "trau": 5114,
      "marry": 5115,
      "ughter": 5116,
      "studies": 5117,
      "giant": 5118,
      "addy": 5119,
      "midst": 5120,
      "bene": 5121,
      "hardest": 5122,
      "anese": 5123,
      "papers": 5124,
      "flir": 5125,
      "portray": 5126,
      "cruel": 5127,
      "french": 5128,
      "relevant": 5129,
      "infuri": 5130,
      "bid": 5131,
      "bills": 5132,
      "glow": 5133,
      "ration": 5134,
      "theat": 5135,
      "sep": 5136,
      "coat": 5137,
      "uncle": 5138,
      "commer": 5139,
      "jokes": 5140,
      "nerves": 5141,
      "buzz": 5142,
      "served": 5143,
      "amazingly": 5144,
      "colours": 5145,
      "gently": 5146,
      "winning": 5147,
      "occup": 5148,
      "expressed": 5149,
      "organized": 5150,
      "scenes": 5151,
      "benefits": 5152,
      "junk": 5153,
      "telev": 5154,
      "va": 5155,
      "stable": 5156,
      "river": 5157,
      "pted": 5158,
      "acceptance": 5159,
      "crime": 5160,
      "tempted": 5161,
      "rejection": 5162,
      "struggles": 5163,
      "traveling": 5164,
      "candid": 5165,
      "photography": 5166,
      "birds": 5167,
      "empowered": 5168,
      "squee": 5169,
      "enthralled": 5170,
      "beneath": 5171,
      "cash": 5172,
      "ius": 5173,
      "ox": 5174,
      "swing": 5175,
      "thick": 5176,
      "todd": 5177,
      "dishes": 5178,
      "plant": 5179,
      "izzy": 5180,
      "schools": 5181,
      "tremend": 5182,
      "absolute": 5183,
      "court": 5184,
      "sales": 5185,
      "portion": 5186,
      "campus": 5187,
      "bowl": 5188,
      "magazine": 5189,
      "tug": 5190,
      "loa": 5191,
      "context": 5192,
      "standard": 5193,
      "positively": 5194,
      "muscle": 5195,
      "integr": 5196,
      "hunger": 5197,
      "powerless": 5198,
      "flower": 5199,
      "cats": 5200,
      "articles": 5201,
      "critical": 5202,
      "wrapped": 5203,
      "lor": 5204,
      "nick": 5205,
      "remark": 5206,
      "removed": 5207,
      "eness": 5208,
      "abl": 5209,
      "los": 5210,
      "unk": 5211,
      "constru": 5212,
      "nah": 5213,
      "tribut": 5214,
      "humanity": 5215,
      "conference": 5216,
      "specif": 5217,
      "conclusion": 5218,
      "flies": 5219,
      "ore": 5220,
      "inj": 5221,
      "metal": 5222,
      "moist": 5223,
      "plor": 5224,
      "clue": 5225,
      "hum": 5226,
      "monster": 5227,
      "greet": 5228,
      "convince": 5229,
      "spiritually": 5230,
      "laws": 5231,
      "contribu": 5232,
      "swimming": 5233,
      "typical": 5234,
      "scratch": 5235,
      "gender": 5236,
      "mama": 5237,
      "pul": 5238,
      "tan": 5239,
      "itle": 5240,
      "ality": 5241,
      "island": 5242,
      "lifting": 5243,
      "sees": 5244,
      "conserv": 5245,
      "evidence": 5246,
      "intended": 5247,
      "strate": 5248,
      "kindness": 5249,
      "clin": 5250,
      "lump": 5251,
      "fatig": 5252,
      "england": 5253,
      "aug": 5254,
      "ffe": 5255,
      "kers": 5256,
      "lash": 5257,
      "lung": 5258,
      "px": 5259,
      "pig": 5260,
      "rug": 5261,
      "itary": 5262,
      "alex": 5263,
      "orary": 5264,
      "india": 5265,
      "izes": 5266,
      "desires": 5267,
      "carried": 5268,
      "foundation": 5269,
      "interests": 5270,
      "breaks": 5271,
      "fitness": 5272,
      "harsh": 5273,
      "engine": 5274,
      "offering": 5275,
      "grandmother": 5276,
      "continues": 5277,
      "kicks": 5278,
      "snack": 5279,
      "zero": 5280,
      "sharp": 5281,
      "specifically": 5282,
      "bone": 5283,
      "gid": 5284,
      "remove": 5285,
      "isra": 5286,
      "united": 5287,
      "spell": 5288,
      "rested": 5289,
      "tries": 5290,
      "tummy": 5291,
      "obs": 5292,
      "obama": 5293,
      "basket": 5294,
      "avoiding": 5295,
      "avo": 5296,
      "bout": 5297,
      "jen": 5298,
      "mers": 5299,
      "vation": 5300,
      "edit": 5301,
      "whoever": 5302,
      "seeking": 5303,
      "meds": 5304,
      "sink": 5305,
      "distant": 5306,
      "mini": 5307,
      "https": 5308,
      "services": 5309,
      "lists": 5310,
      "crave": 5311,
      "reasonable": 5312,
      "punish": 5313,
      "appears": 5314,
      "souls": 5315,
      "patri": 5316,
      "panick": 5317,
      "patients": 5318,
      "january": 5319,
      "explanation": 5320,
      "endeav": 5321,
      "aid": 5322,
      "dizzy": 5323,
      "lou": 5324,
      "thread": 5325,
      "infe": 5326,
      "moves": 5327,
      "youd": 5328,
      "unworthy": 5329,
      "unbeliev": 5330,
      "geor": 5331,
      "blu": 5332,
      "blur": 5333,
      "paget": 5334,
      "fancy": 5335,
      "accomplishment": 5336,
      "adore": 5337,
      "pretending": 5338,
      "ignoring": 5339,
      "companion": 5340,
      "financially": 5341,
      "sneak": 5342,
      "awoke": 5343,
      "bour": 5344,
      "cil": 5345,
      "daddy": 5346,
      "gal": 5347,
      "phe": 5348,
      "replace": 5349,
      "thed": 5350,
      "envy": 5351,
      "itating": 5352,
      "soever": 5353,
      "poe": 5354,
      "whatsoever": 5355,
      "bold": 5356,
      "disorder": 5357,
      "lux": 5358,
      "driven": 5359,
      "sooner": 5360,
      "touching": 5361,
      "consciously": 5362,
      "indulge": 5363,
      "television": 5364,
      "vas": 5365,
      "toi": 5366,
      "explor": 5367,
      "perman": 5368,
      "worker": 5369,
      "heres": 5370,
      "cars": 5371,
      "minded": 5372,
      "honey": 5373,
      "sorta": 5374,
      "smaller": 5375,
      "treating": 5376,
      "silent": 5377,
      "meaningful": 5378,
      "candy": 5379,
      "therapist": 5380,
      "glamour": 5381,
      "israel": 5382,
      "bage": 5383,
      "dic": 5384,
      "nel": 5385,
      "pill": 5386,
      "tb": 5387,
      "ambit": 5388,
      "ario": 5389,
      "convey": 5390,
      "grass": 5391,
      "guar": 5392,
      "ops": 5393,
      "broad": 5394,
      "intern": 5395,
      "reminding": 5396,
      "director": 5397,
      "july": 5398,
      "replied": 5399,
      "grounded": 5400,
      "encouraging": 5401,
      "massive": 5402,
      "require": 5403,
      "refresh": 5404,
      "refreshed": 5405,
      "dignified": 5406,
      "hidden": 5407,
      "aked": 5408,
      "praise": 5409,
      "uber": 5410,
      "orange": 5411,
      "irts": 5412,
      "raising": 5413,
      "afri": 5414,
      "persons": 5415,
      "traffic": 5416,
      "handed": 5417,
      "reasonably": 5418,
      "puppy": 5419,
      "facts": 5420,
      "classmates": 5421,
      "venge": 5422,
      "appreciation": 5423,
      "opposed": 5424,
      "divor": 5425,
      "intelligence": 5426,
      "juice": 5427,
      "hydr": 5428,
      "intensely": 5429,
      "loads": 5430,
      "identify": 5431,
      "influence": 5432,
      "discipl": 5433,
      "cd": 5434,
      "fas": 5435,
      "hen": 5436,
      "mall": 5437,
      "nine": 5438,
      "info": 5439,
      "asm": 5440,
      "ira": 5441,
      "destru": 5442,
      "tering": 5443,
      "guid": 5444,
      "woe": 5445,
      "minds": 5446,
      "empathy": 5447,
      "honesty": 5448,
      "relaxing": 5449,
      "visited": 5450,
      "falls": 5451,
      "concert": 5452,
      "challenging": 5453,
      "daughters": 5454,
      "instin": 5455,
      "published": 5456,
      "companies": 5457,
      "japanese": 5458,
      "absence": 5459,
      "fantasy": 5460,
      "philo": 5461,
      "democr": 5462,
      "infuriated": 5463,
      "commercial": 5464,
      "otic": 5465,
      "rhy": 5466,
      "anda": 5467,
      "acknowled": 5468,
      "uneasy": 5469,
      "ppl": 5470,
      "endless": 5471,
      "bore": 5472,
      "realistic": 5473,
      "worlds": 5474,
      "voices": 5475,
      "countries": 5476,
      "walks": 5477,
      "holds": 5478,
      "insan": 5479,
      "misery": 5480,
      "thrill": 5481,
      "neglected": 5482,
      "variety": 5483,
      "japan": 5484,
      "complicated": 5485,
      "according": 5486,
      "guarant": 5487,
      "inch": 5488,
      "reh": 5489,
      "forgetting": 5490,
      "outfits": 5491,
      "unfair": 5492,
      "promp": 5493,
      "display": 5494,
      "joined": 5495,
      "lake": 5496,
      "laughter": 5497,
      "realization": 5498,
      "udge": 5499,
      "steal": 5500,
      "march": 5501,
      "invis": 5502,
      "spirits": 5503,
      "dropping": 5504,
      "direct": 5505,
      "concerns": 5506,
      "boots": 5507,
      "atory": 5508,
      "conflict": 5509,
      "polish": 5510,
      "murder": 5511,
      "bridge": 5512,
      "british": 5513,
      "suffered": 5514,
      "ona": 5515,
      "itate": 5516,
      "mere": 5517,
      "acity": 5518,
      "sucked": 5519,
      "ternal": 5520,
      "exhibit": 5521,
      "dish": 5522,
      "mony": 5523,
      "stepping": 5524,
      "importantly": 5525,
      "frustrating": 5526,
      "openly": 5527,
      "closest": 5528,
      "comedy": 5529,
      "judging": 5530,
      "tests": 5531,
      "cookies": 5532,
      "sandwi": 5533,
      "separate": 5534,
      "conflicted": 5535,
      "consequences": 5536,
      "dresses": 5537,
      "ow": 5538,
      "vs": 5539,
      "xd": 5540,
      "behalf": 5541,
      "ading": 5542,
      "cauti": 5543,
      "aller": 5544,
      "shade": 5545,
      "creepy": 5546,
      "auth": 5547,
      "tendency": 5548,
      "cases": 5549,
      "asks": 5550,
      "counting": 5551,
      "visual": 5552,
      "patter": 5553,
      "celebrating": 5554,
      "kicked": 5555,
      "hugs": 5556,
      "increase": 5557,
      "rushing": 5558,
      "nauseous": 5559,
      "thousands": 5560,
      "bf": 5561,
      "dick": 5562,
      "hits": 5563,
      "yel": 5564,
      "prejud": 5565,
      "sage": 5566,
      "standards": 5567,
      "mono": 5568,
      "shops": 5569,
      "wonderfully": 5570,
      "closet": 5571,
      "establ": 5572,
      "invite": 5573,
      "airport": 5574,
      "shorts": 5575,
      "snug": 5576,
      "explode": 5577,
      "nursing": 5578,
      "flesh": 5579,
      "provided": 5580,
      "campa": 5581,
      "tune": 5582,
      "despairing": 5583,
      "vintage": 5584,
      "crisis": 5585,
      "feminine": 5586,
      "mournful": 5587,
      "bc": 5588,
      "ral": 5589,
      "elder": 5590,
      "encouraged": 5591,
      "verb": 5592,
      "sufficient": 5593,
      "comfor": 5594,
      "trusted": 5595,
      "bleed": 5596,
      "matically": 5597,
      "warning": 5598,
      "hallo": 5599,
      "grapher": 5600,
      "attempting": 5601,
      "argue": 5602,
      "route": 5603,
      "discussing": 5604,
      "windows": 5605,
      "princess": 5606,
      "potato": 5607,
      "hilarious": 5608,
      "nagging": 5609,
      "hic": 5610,
      "ii": 5611,
      "ml": 5612,
      "tang": 5613,
      "yell": 5614,
      "inju": 5615,
      "forms": 5616,
      "coast": 5617,
      "dose": 5618,
      "antsy": 5619,
      "uled": 5620,
      "ques": 5621,
      "tember": 5622,
      "stores": 5623,
      "confusion": 5624,
      "voted": 5625,
      "understands": 5626,
      "steady": 5627,
      "berry": 5628,
      "followers": 5629,
      "weekends": 5630,
      "transfer": 5631,
      "responses": 5632,
      "structure": 5633,
      "september": 5634,
      "fb": 5635,
      "kit": 5636,
      "lbs": 5637,
      "wished": 5638,
      "thigh": 5639,
      "inability": 5640,
      "reo": 5641,
      "unsettled": 5642,
      "poem": 5643,
      "compreh": 5644,
      "joint": 5645,
      "centered": 5646,
      "cali": 5647,
      "internal": 5648,
      "creature": 5649,
      "virgin": 5650,
      "punch": 5651,
      "client": 5652,
      "responsibilities": 5653,
      "involve": 5654,
      "micha": 5655,
      "practically": 5656,
      "heavily": 5657,
      "lust": 5658,
      "vigor": 5659,
      "reactions": 5660,
      "tober": 5661,
      "aly": 5662,
      "chel": 5663,
      "terror": 5664,
      "ables": 5665,
      "prison": 5666,
      "shaking": 5667,
      "todays": 5668,
      "truck": 5669,
      "classic": 5670,
      "driver": 5671,
      "bloody": 5672,
      "soup": 5673,
      "described": 5674,
      "exists": 5675,
      "exercising": 5676,
      "potentially": 5677,
      "profile": 5678,
      "scienti": 5679,
      "attach": 5680,
      "typically": 5681,
      "assignment": 5682,
      "grocery": 5683,
      "august": 5684,
      "halloween": 5685,
      "nia": 5686,
      "tle": 5687,
      "ret": 5688,
      "code": 5689,
      "anta": 5690,
      "pest": 5691,
      "cakes": 5692,
      "fulfill": 5693,
      "ideal": 5694,
      "fuzzy": 5695,
      "finds": 5696,
      "paul": 5697,
      "gile": 5698,
      "flag": 5699,
      "capital": 5700,
      "periods": 5701,
      "encouragement": 5702,
      "resources": 5703,
      "immensely": 5704,
      "authors": 5705,
      "ctively": 5706,
      "gare": 5707,
      "races": 5708,
      "rational": 5709,
      "elly": 5710,
      "ordered": 5711,
      "forcing": 5712,
      "rome": 5713,
      "holes": 5714,
      "unfriendly": 5715,
      "weed": 5716,
      "intens": 5717,
      "manager": 5718,
      "marke": 5719,
      "calories": 5720,
      "admir": 5721,
      "controll": 5722,
      "october": 5723,
      "victi": 5724,
      "stressful": 5725,
      "fragile": 5726,
      "solutions": 5727,
      "heavenly": 5728,
      "clouds": 5729,
      "extended": 5730,
      "effective": 5731,
      "preparing": 5732,
      "released": 5733,
      "pang": 5734,
      "vere": 5735,
      "sus": 5736,
      "redu": 5737,
      "odes": 5738,
      "oken": 5739,
      "spare": 5740,
      "disconnected": 5741,
      "comprom": 5742,
      "impul": 5743,
      "sheer": 5744,
      "weren": 5745,
      "traged": 5746,
      "incor": 5747,
      "resentment": 5748,
      "despised": 5749,
      "deserved": 5750,
      "noticing": 5751,
      "developing": 5752,
      "holly": 5753,
      "sweaty": 5754,
      "nausea": 5755,
      "aggressive": 5756,
      "injury": 5757,
      "lungs": 5758,
      "inferior": 5759,
      "toilet": 5760,
      "dre": 5761,
      "nit": 5762,
      "tin": 5763,
      "ryan": 5764,
      "achy": 5765,
      "whereas": 5766,
      "ension": 5767,
      "guessing": 5768,
      "values": 5769,
      "rubbish": 5770,
      "ieving": 5771,
      "bands": 5772,
      "imagination": 5773,
      "expand": 5774,
      "flor": 5775,
      "offers": 5776,
      "chaos": 5777,
      "dressing": 5778,
      "catching": 5779,
      "jumping": 5780,
      "instit": 5781,
      "garbage": 5782,
      "contractions": 5783,
      "lifted": 5784,
      "nutr": 5785,
      "debate": 5786,
      "consistently": 5787,
      "associated": 5788,
      "obligation": 5789,
      "bubble": 5790,
      "blanket": 5791,
      "pillow": 5792,
      "invisible": 5793,
      "equal": 5794,
      "fare": 5795,
      "gate": 5796,
      "oo": 5797,
      "swallow": 5798,
      "tac": 5799,
      "behave": 5800,
      "unappreciated": 5801,
      "unmotivated": 5802,
      "canada": 5803,
      "thentic": 5804,
      "mike": 5805,
      "voc": 5806,
      "authentic": 5807,
      "curities": 5808,
      "corn": 5809,
      "insist": 5810,
      "insign": 5811,
      "bloated": 5812,
      "itching": 5813,
      "drinks": 5814,
      "attempts": 5815,
      "surroundings": 5816,
      "officially": 5817,
      "reflection": 5818,
      "deliver": 5819,
      "alien": 5820,
      "reference": 5821,
      "travelling": 5822,
      "philosoph": 5823,
      "campaign": 5824,
      "east": 5825,
      "hates": 5826,
      "jim": 5827,
      "rd": 5828,
      "ams": 5829,
      "tied": 5830,
      "loaded": 5831,
      "robe": 5832,
      "hom": 5833,
      "peter": 5834,
      "ssy": 5835,
      "rape": 5836,
      "confront": 5837,
      "safer": 5838,
      "ston": 5839,
      "xture": 5840,
      "couples": 5841,
      "skinny": 5842,
      "intentions": 5843,
      "regards": 5844,
      "crossed": 5845,
      "knitting": 5846,
      "neighbors": 5847,
      "dollars": 5848,
      "robbed": 5849,
      "enthusiasm": 5850,
      "yar": 5851,
      "informed": 5852,
      "reject": 5853,
      "alu": 5854,
      "league": 5855,
      "costu": 5856,
      "unlike": 5857,
      "ppers": 5858,
      "plug": 5859,
      "lifetime": 5860,
      "backs": 5861,
      "turing": 5862,
      "depressing": 5863,
      "drank": 5864,
      "messed": 5865,
      "freely": 5866,
      "insecurities": 5867,
      "regist": 5868,
      "dealt": 5869,
      "approaching": 5870,
      "millions": 5871,
      "military": 5872,
      "scenario": 5873,
      "continuing": 5874,
      "addiction": 5875,
      "contempl": 5876,
      "glamourous": 5877,
      "aunt": 5878,
      "rat": 5879,
      "uh": 5880,
      "vast": 5881,
      "revel": 5882,
      "vegan": 5883,
      "ghost": 5884,
      "motion": 5885,
      "confron": 5886,
      "pocket": 5887,
      "agers": 5888,
      "misunderstood": 5889,
      "herent": 5890,
      "blast": 5891,
      "blings": 5892,
      "pointed": 5893,
      "enjoyable": 5894,
      "photographer": 5895,
      "apology": 5896,
      "gaze": 5897,
      "providing": 5898,
      "cheeks": 5899,
      "announce": 5900,
      "sacrific": 5901,
      "cudd": 5902,
      "hormones": 5903,
      "bust": 5904,
      "cine": 5905,
      "pinterest": 5906,
      "passes": 5907,
      "sce": 5908,
      "tank": 5909,
      "revol": 5910,
      "nod": 5911,
      "hoo": 5912,
      "coaster": 5913,
      "mption": 5914,
      "thern": 5915,
      "meditation": 5916,
      "jewel": 5917,
      "trips": 5918,
      "privilege": 5919,
      "presentation": 5920,
      "depending": 5921,
      "circles": 5922,
      "promises": 5923,
      "occasions": 5924,
      "racist": 5925,
      "label": 5926,
      "episodes": 5927,
      "publish": 5928,
      "graduate": 5929,
      "zomb": 5930,
      "econom": 5931,
      "pagetitle": 5932,
      "dies": 5933,
      "stir": 5934,
      "forming": 5935,
      "actors": 5936,
      "entries": 5937,
      "cafe": 5938,
      "proceed": 5939,
      "comparing": 5940,
      "stock": 5941,
      "stands": 5942,
      "interaction": 5943,
      "charity": 5944,
      "suffoc": 5945,
      "sticking": 5946,
      "larger": 5947,
      "sarah": 5948,
      "washed": 5949,
      "ignorant": 5950,
      "automatically": 5951,
      "temperature": 5952,
      "exhaustion": 5953,
      "dip": 5954,
      "pills": 5955,
      "yelling": 5956,
      "income": 5957,
      "toy": 5958,
      "sta": 5959,
      "meta": 5960,
      "verge": 5961,
      "rice": 5962,
      "hers": 5963,
      "mud": 5964,
      "grasp": 5965,
      "guitar": 5966,
      "chem": 5967,
      "margin": 5968,
      "houses": 5969,
      "healthier": 5970,
      "juven": 5971,
      "porate": 5972,
      "jumped": 5973,
      "fixed": 5974,
      "occasional": 5975,
      "bummed": 5976,
      "score": 5977,
      "spanish": 5978,
      "intentionally": 5979,
      "knock": 5980,
      "trigger": 5981,
      "yellow": 5982,
      "victims": 5983,
      "sceptical": 5984,
      "cis": 5985,
      "itors": 5986,
      "signed": 5987,
      "semi": 5988,
      "justify": 5989,
      "exchange": 5990,
      "url": 5991,
      "sham": 5992,
      "indian": 5993,
      "homes": 5994,
      "mercy": 5995,
      "international": 5996,
      "curl": 5997,
      "adds": 5998,
      "grades": 5999,
      "pale": 6000,
      "lipstick": 6001,
      "inspiring": 6002,
      "ignorance": 6003,
      "butterflies": 6004,
      "initial": 6005,
      "clarity": 6006,
      "alternate": 6007,
      "accurate": 6008,
      "sincerely": 6009,
      "patterns": 6010,
      "vigorous": 6011,
      "apri": 6012,
      "gir": 6013,
      "gely": 6014,
      "ials": 6015,
      "packing": 6016,
      "era": 6017,
      "stab": 6018,
      "alt": 6019,
      "ases": 6020,
      "ural": 6021,
      "ella": 6022,
      "reli": 6023,
      "string": 6024,
      "wherever": 6025,
      "bucks": 6026,
      "burned": 6027,
      "cript": 6028,
      "defensive": 6029,
      "purpo": 6030,
      "halfway": 6031,
      "gency": 6032,
      "largely": 6033,
      "surrounding": 6034,
      "struck": 6035,
      "packed": 6036,
      "chuck": 6037,
      "ponder": 6038,
      "guidance": 6039,
      "comforting": 6040,
      "michael": 6041,
      "omy": 6042,
      "patch": 6043,
      "vig": 6044,
      "keys": 6045,
      "actively": 6046,
      "pee": 6047,
      "agra": 6048,
      "tted": 6049,
      "spel": 6050,
      "ticket": 6051,
      "assed": 6052,
      "joining": 6053,
      "mixture": 6054,
      "glor": 6055,
      "tense": 6056,
      "hurry": 6057,
      "cue": 6058,
      "curi": 6059,
      "senses": 6060,
      "sunny": 6061,
      "uncertainty": 6062,
      "nostalgia": 6063,
      "salad": 6064,
      "settling": 6065,
      "porn": 6066,
      "lecture": 6067,
      "boost": 6068,
      "buddy": 6069,
      "adorable": 6070,
      "location": 6071,
      "theatre": 6072,
      "califor": 6073,
      "insignificant": 6074,
      "bis": 6075,
      "eh": 6076,
      "easter": 6077,
      "ronic": 6078,
      "sket": 6079,
      "yer": 6080,
      "seed": 6081,
      "justified": 6082,
      "excess": 6083,
      "ples": 6084,
      "poo": 6085,
      "plastic": 6086,
      "savi": 6087,
      "mbl": 6088,
      "naive": 6089,
      "wardrobe": 6090,
      "aka": 6091,
      "surge": 6092,
      "phones": 6093,
      "movements": 6094,
      "ahh": 6095,
      "possibilities": 6096,
      "questioning": 6097,
      "cultur": 6098,
      "slug": 6099,
      "weakness": 6100,
      "attending": 6101,
      "wander": 6102,
      "required": 6103,
      "selected": 6104,
      "hundreds": 6105,
      "cousin": 6106,
      "category": 6107,
      "baking": 6108,
      "muse": 6109,
      "nce": 6110,
      "nig": 6111,
      "som": 6112,
      "tist": 6113,
      "adic": 6114,
      "neath": 6115,
      "exe": 6116,
      "agram": 6117,
      "spill": 6118,
      "creation": 6119,
      "carefully": 6120,
      "ships": 6121,
      "russ": 6122,
      "production": 6123,
      "inspire": 6124,
      "meetings": 6125,
      "harry": 6126,
      "network": 6127,
      "gaining": 6128,
      "ministry": 6129,
      "blowing": 6130,
      "legitim": 6131,
      "avoided": 6132,
      "gang": 6133,
      "pms": 6134,
      "sche": 6135,
      "zi": 6136,
      "format": 6137,
      "sustain": 6138,
      "wee": 6139,
      "wester": 6140,
      "nest": 6141,
      "fulfilling": 6142,
      "endure": 6143,
      "agger": 6144,
      "quot": 6145,
      "spaper": 6146,
      "disrespected": 6147,
      "stopping": 6148,
      "applied": 6149,
      "newspaper": 6150,
      "weekly": 6151,
      "refused": 6152,
      "paris": 6153,
      "timing": 6154,
      "singapo": 6155,
      "funk": 6156,
      "valent": 6157,
      "stumble": 6158,
      "ruin": 6159,
      "charged": 6160,
      "musical": 6161,
      "entering": 6162,
      "treats": 6163,
      "capacity": 6164,
      "description": 6165,
      "ification": 6166,
      "entertaining": 6167,
      "griev": 6168,
      "remains": 6169,
      "traditional": 6170,
      "oriented": 6171,
      "exceptionally": 6172,
      "awaken": 6173,
      "autum": 6174,
      "april": 6175,
      "glimp": 6176,
      "ium": 6177,
      "jar": 6178,
      "sir": 6179,
      "sive": 6180,
      "vit": 6181,
      "replaced": 6182,
      "theater": 6183,
      "theory": 6184,
      "rot": 6185,
      "covers": 6186,
      "unfold": 6187,
      "conce": 6188,
      "grin": 6189,
      "relative": 6190,
      "underneath": 6191,
      "reser": 6192,
      "stereo": 6193,
      "interven": 6194,
      "cynical": 6195,
      "prayed": 6196,
      "leaders": 6197,
      "salt": 6198,
      "americans": 6199,
      "nonsense": 6200,
      "flick": 6201,
      "recognized": 6202,
      "arguments": 6203,
      "attacks": 6204,
      "designs": 6205,
      "binge": 6206,
      "bothering": 6207,
      "excuses": 6208,
      "initi": 6209,
      "economy": 6210,
      "jacket": 6211,
      "guarantee": 6212,
      "dv": 6213,
      "gies": 6214,
      "woken": 6215,
      "enorm": 6216,
      "stit": 6217,
      "lement": 6218,
      "absor": 6219,
      "mod": 6220,
      "entr": 6221,
      "evalu": 6222,
      "proof": 6223,
      "udes": 6224,
      "emphas": 6225,
      "floating": 6226,
      "immediate": 6227,
      "volu": 6228,
      "kisses": 6229,
      "nicely": 6230,
      "academic": 6231,
      "perceive": 6232,
      "difficulty": 6233,
      "intensity": 6234,
      "singapore": 6235,
      "etern": 6236,
      "lj": 6237,
      "ltr": 6238,
      "nis": 6239,
      "named": 6240,
      "pam": 6241,
      "wol": 6242,
      "thom": 6243,
      "ensure": 6244,
      "stim": 6245,
      "alarm": 6246,
      "arian": 6247,
      "wil": 6248,
      "rier": 6249,
      "gear": 6250,
      "magn": 6251,
      "polar": 6252,
      "permission": 6253,
      "igning": 6254,
      "jog": 6255,
      "intu": 6256,
      "logically": 6257,
      "handling": 6258,
      "ashed": 6259,
      "melt": 6260,
      "tility": 6261,
      "continually": 6262,
      "christians": 6263,
      "festival": 6264,
      "layers": 6265,
      "risks": 6266,
      "poorly": 6267,
      "smells": 6268,
      "educated": 6269,
      "secrets": 6270,
      "competent": 6271,
      "nonetheless": 6272,
      "rupt": 6273,
      "consistent": 6274,
      "mountains": 6275,
      "drowning": 6276,
      "california": 6277,
      "ku": 6278,
      "scrap": 6279,
      "infer": 6280,
      "socks": 6281,
      "administ": 6282,
      "hook": 6283,
      "icy": 6284,
      "hasn": 6285,
      "thoughtful": 6286,
      "parking": 6287,
      "desc": 6288,
      "primary": 6289,
      "resort": 6290,
      "smiled": 6291,
      "slee": 6292,
      "defense": 6293,
      "begins": 6294,
      "embarrassing": 6295,
      "adventures": 6296,
      "midnight": 6297,
      "advance": 6298,
      "chain": 6299,
      "grandma": 6300,
      "medium": 6301,
      "suggested": 6302,
      "attended": 6303,
      "initially": 6304,
      "cravings": 6305,
      "eggs": 6306,
      "marketing": 6307,
      "bars": 6308,
      "py": 6309,
      "tou": 6310,
      "yum": 6311,
      "tha": 6312,
      "thumb": 6313,
      "inate": 6314,
      "toys": 6315,
      "beast": 6316,
      "ami": 6317,
      "notion": 6318,
      "escap": 6319,
      "cow": 6320,
      "spaces": 6321,
      "spray": 6322,
      "disappear": 6323,
      "saf": 6324,
      "theirs": 6325,
      "belt": 6326,
      "downs": 6327,
      "paragra": 6328,
      "matt": 6329,
      "interact": 6330,
      "embar": 6331,
      "population": 6332,
      "genre": 6333,
      "flood": 6334,
      "respectful": 6335,
      "rolls": 6336,
      "accused": 6337,
      "responding": 6338,
      "square": 6339,
      "official": 6340,
      "miracle": 6341,
      "quarter": 6342,
      "resource": 6343,
      "destroyed": 6344,
      "bastard": 6345,
      "manifest": 6346,
      "australia": 6347,
      "nutrition": 6348,
      "paragraph": 6349,
      "bt": 6350,
      "bie": 6351,
      "dup": 6352,
      "oly": 6353,
      "rit": 6354,
      "twing": 6355,
      "enlight": 6356,
      "assess": 6357,
      "liver": 6358,
      "limb": 6359,
      "severe": 6360,
      "verted": 6361,
      "loop": 6362,
      "weary": 6363,
      "arer": 6364,
      "disco": 6365,
      "angle": 6366,
      "achieving": 6367,
      "righte": 6368,
      "clut": 6369,
      "glory": 6370,
      "confusing": 6371,
      "shoe": 6372,
      "headaches": 6373,
      "childish": 6374,
      "contentment": 6375,
      "iber": 6376,
      "dialo": 6377,
      "successfully": 6378,
      "definition": 6379,
      "hahahaha": 6380,
      "fortune": 6381,
      "teams": 6382,
      "entertainment": 6383,
      "literature": 6384,
      "teenage": 6385,
      "directions": 6386,
      "cookie": 6387,
      "improved": 6388,
      "troubles": 6389,
      "counsel": 6390,
      "golden": 6391,
      "occurred": 6392,
      "possess": 6393,
      "acquaint": 6394,
      "forgiveness": 6395,
      "designer": 6396,
      "cringe": 6397,
      "refreshing": 6398,
      "tf": 6399,
      "feature": 6400,
      "altogether": 6401,
      "mechan": 6402,
      "solo": 6403,
      "abit": 6404,
      "abroad": 6405,
      "locked": 6406,
      "gospel": 6407,
      "weal": 6408,
      "neut": 6409,
      "perfection": 6410,
      "spouse": 6411,
      "split": 6412,
      "cigare": 6413,
      "gray": 6414,
      "contra": 6415,
      "forest": 6416,
      "logic": 6417,
      "designed": 6418,
      "jected": 6419,
      "giveaway": 6420,
      "painted": 6421,
      "handful": 6422,
      "vocal": 6423,
      "pointless": 6424,
      "slightest": 6425,
      "conditions": 6426,
      "resolve": 6427,
      "genius": 6428,
      "seasons": 6429,
      "boxes": 6430,
      "approached": 6431,
      "flattered": 6432,
      "rhyth": 6433,
      "fice": 6434,
      "pier": 6435,
      "shad": 6436,
      "sip": 6437,
      "renew": 6438,
      "roof": 6439,
      "mag": 6440,
      "shat": 6441,
      "yea": 6442,
      "stops": 6443,
      "torture": 6444,
      "chemist": 6445,
      "subscri": 6446,
      "victory": 6447,
      "juices": 6448,
      "screw": 6449,
      "slide": 6450,
      "instagram": 6451,
      "consciousness": 6452,
      "delivery": 6453,
      "sacrifice": 6454,
      "giddy": 6455,
      "unbelievably": 6456,
      "divorce": 6457,
      "tragedy": 6458,
      "cti": 6459,
      "kni": 6460,
      "rab": 6461,
      "rated": 6462,
      "swo": 6463,
      "tely": 6464,
      "ums": 6465,
      "anni": 6466,
      "atom": 6467,
      "toe": 6468,
      "strain": 6469,
      "meme": 6470,
      "liqu": 6471,
      "sey": 6472,
      "lov": 6473,
      "rocious": 6474,
      "cot": 6475,
      "union": 6476,
      "dos": 6477,
      "glut": 6478,
      "brut": 6479,
      "thankfully": 6480,
      "grees": 6481,
      "steve": 6482,
      "syn": 6483,
      "earned": 6484,
      "farm": 6485,
      "countered": 6486,
      "highlight": 6487,
      "drift": 6488,
      "examination": 6489,
      "flip": 6490,
      "attraction": 6491,
      "workouts": 6492,
      "treasure": 6493,
      "knit": 6494,
      "improvement": 6495,
      "novels": 6496,
      "enemy": 6497,
      "repeatedly": 6498,
      "biz": 6499,
      "flame": 6500,
      "scare": 6501,
      "tread": 6502,
      "incapable": 6503,
      "retreat": 6504,
      "rejuven": 6505,
      "albe": 6506,
      "vegg": 6507,
      "chor": 6508,
      "motor": 6509,
      "llen": 6510,
      "unnecessary": 6511,
      "degrees": 6512,
      "maker": 6513,
      "canvas": 6514,
      "wouldve": 6515,
      "quer": 6516,
      "intri": 6517,
      "blaming": 6518,
      "horiz": 6519,
      "tends": 6520,
      "istics": 6521,
      "imagining": 6522,
      "temporary": 6523,
      "grandfather": 6524,
      "strike": 6525,
      "celebration": 6526,
      "budget": 6527,
      "roots": 6528,
      "magical": 6529,
      "referring": 6530,
      "obsessed": 6531,
      "distinct": 6532,
      "tackle": 6533,
      "toddler": 6534,
      "prejudiced": 6535,
      "zombie": 6536,
      "mig": 6537,
      "tant": 6538,
      "wrest": 6539,
      "eline": 6540,
      "feminist": 6541,
      "ench": 6542,
      "enced": 6543,
      "chemo": 6544,
      "adren": 6545,
      "masters": 6546,
      "applying": 6547,
      "minis": 6548,
      "mindset": 6549,
      "turkey": 6550,
      "centre": 6551,
      "athle": 6552,
      "obje": 6553,
      "purely": 6554,
      "massage": 6555,
      "insult": 6556,
      "mentioning": 6557,
      "speaks": 6558,
      "severely": 6559,
      "organic": 6560,
      "belonging": 6561,
      "responded": 6562,
      "suggestions": 6563,
      "originally": 6564,
      "operation": 6565,
      "kissing": 6566,
      "baseball": 6567,
      "flaws": 6568,
      "introduce": 6569,
      "essential": 6570,
      "confirm": 6571,
      "exploring": 6572,
      "sandwich": 6573,
      "curiosity": 6574,
      "eu": 6575,
      "ez": 6576,
      "gall": 6577,
      "jav": 6578,
      "narr": 6579,
      "anna": 6580,
      "ingred": 6581,
      "repair": 6582,
      "orter": 6583,
      "vet": 6584,
      "homo": 6585,
      "cancel": 6586,
      "immature": 6587,
      "spon": 6588,
      "boot": 6589,
      "imper": 6590,
      "afterward": 6591,
      "humble": 6592,
      "owners": 6593,
      "puzz": 6594,
      "ffy": 6595,
      "roommate": 6596,
      "embarrassment": 6597,
      "dawn": 6598,
      "husbands": 6599,
      "balanced": 6600,
      "factor": 6601,
      "existed": 6602,
      "roads": 6603,
      "cups": 6604,
      "programs": 6605,
      "politic": 6606,
      "neglecting": 6607,
      "management": 6608,
      "quilt": 6609,
      "subjects": 6610,
      "scott": 6611,
      "texture": 6612,
      "accidentally": 6613,
      "snobbish": 6614,
      "anime": 6615,
      "ville": 6616,
      "fatigue": 6617,
      "autumn": 6618,
      "knife": 6619,
      "albeit": 6620,
      "ingredient": 6621,
      "rings": 6622,
      "insurance": 6623,
      "attribut": 6624,
      "err": 6625,
      "editing": 6626,
      "beth": 6627,
      "roles": 6628,
      "ental": 6629,
      "unhealthy": 6630,
      "ulating": 6631,
      "urt": 6632,
      "cheating": 6633,
      "venture": 6634,
      "calmer": 6635,
      "earn": 6636,
      "creatures": 6637,
      "elements": 6638,
      "doubts": 6639,
      "figuring": 6640,
      "spoil": 6641,
      "publi": 6642,
      "discussed": 6643,
      "accomplishments": 6644,
      "piano": 6645,
      "eyel": 6646,
      "demands": 6647,
      "compliments": 6648,
      "enthusiastic": 6649,
      "delete": 6650,
      "updated": 6651,
      "tremendously": 6652,
      "discipline": 6653,
      "cence": 6654,
      "dates": 6655,
      "ology": 6656,
      "infection": 6657,
      "arro": 6658,
      "iders": 6659,
      "moan": 6660,
      "pets": 6661,
      "consul": 6662,
      "endor": 6663,
      "essay": 6664,
      "comic": 6665,
      "impol": 6666,
      "apping": 6667,
      "newborn": 6668,
      "fuel": 6669,
      "senior": 6670,
      "leather": 6671,
      "cheat": 6672,
      "marvel": 6673,
      "cesses": 6674,
      "sickness": 6675,
      "subtle": 6676,
      "styles": 6677,
      "moods": 6678,
      "silver": 6679,
      "grip": 6680,
      "sofa": 6681,
      "connections": 6682,
      "limits": 6683,
      "assuming": 6684,
      "publishing": 6685,
      "contributing": 6686,
      "nuts": 6687,
      "cheerful": 6688,
      "features": 6689,
      "village": 6690,
      "remotely": 6691,
      "tastes": 6692,
      "korean": 6693,
      "tbh": 6694,
      "safely": 6695,
      "jon": 6696,
      "lan": 6697,
      "lace": 6698,
      "slap": 6699,
      "elev": 6700,
      "revenge": 6701,
      "army": 6702,
      "vehic": 6703,
      "hobby": 6704,
      "ulations": 6705,
      "condu": 6706,
      "shallow": 6707,
      "cky": 6708,
      "lifes": 6709,
      "comfortably": 6710,
      "command": 6711,
      "arrange": 6712,
      "convic": 6713,
      "tested": 6714,
      "dependent": 6715,
      "judgement": 6716,
      "polite": 6717,
      "climbing": 6718,
      "priority": 6719,
      "adoring": 6720,
      "inevit": 6721,
      "george": 6722,
      "yarn": 6723,
      "adrenal": 6724,
      "din": 6725,
      "drew": 6726,
      "hmm": 6727,
      "jaw": 6728,
      "pess": 6729,
      "scan": 6730,
      "isation": 6731,
      "amb": 6732,
      "liz": 6733,
      "chasing": 6734,
      "ida": 6735,
      "ica": 6736,
      "iry": 6737,
      "cere": 6738,
      "rageous": 6739,
      "disney": 6740,
      "disappeared": 6741,
      "tee": 6742,
      "apped": 6743,
      "waist": 6744,
      "bran": 6745,
      "brat": 6746,
      "huh": 6747,
      "distri": 6748,
      "synd": 6749,
      "borrow": 6750,
      "dia": 6751,
      "secondary": 6752,
      "dirt": 6753,
      "alongside": 6754,
      "protective": 6755,
      "practical": 6756,
      "rapid": 6757,
      "amounts": 6758,
      "policy": 6759,
      "investig": 6760,
      "guests": 6761,
      "cousins": 6762,
      "essentially": 6763,
      "mutual": 6764,
      "diagnosis": 6765,
      "platform": 6766,
      "profoundly": 6767,
      "dedicated": 6768,
      "attachment": 6769,
      "chemical": 6770,
      "impolite": 6771,
      "apathetic": 6772,
      "dor": 6773,
      "jay": 6774,
      "mort": 6775,
      "vamp": 6776,
      "vague": 6777,
      "ziness": 6778,
      "infin": 6779,
      "eral": 6780,
      "arter": 6781,
      "lia": 6782,
      "chase": 6783,
      "acles": 6784,
      "rip": 6785,
      "ula": 6786,
      "caffe": 6787,
      "iring": 6788,
      "define": 6789,
      "canad": 6790,
      "shu": 6791,
      "comfy": 6792,
      "disaster": 6793,
      "blush": 6794,
      "thru": 6795,
      "prime": 6796,
      "closing": 6797,
      "closely": 6798,
      "irrational": 6799,
      "diary": 6800,
      "versary": 6801,
      "motherhood": 6802,
      "qualities": 6803,
      "transl": 6804,
      "articulate": 6805,
      "tracks": 6806,
      "overwhelmingly": 6807,
      "chatting": 6808,
      "digg": 6809,
      "crowded": 6810,
      "micro": 6811,
      "debt": 6812,
      "collap": 6813,
      "decorations": 6814,
      "introduced": 6815,
      "dessert": 6816,
      "tattoo": 6817,
      "pessim": 6818,
      "dur": 6819,
      "eup": 6820,
      "ix": 6821,
      "juni": 6822,
      "rut": 6823,
      "upper": 6824,
      "wrist": 6825,
      "inary": 6826,
      "stated": 6827,
      "isa": 6828,
      "assure": 6829,
      "veins": 6830,
      "outlet": 6831,
      "idal": 6832,
      "unusual": 6833,
      "uncondition": 6834,
      "usa": 6835,
      "poison": 6836,
      "illa": 6837,
      "angst": 6838,
      "mia": 6839,
      "mith": 6840,
      "gled": 6841,
      "sweating": 6842,
      "singer": 6843,
      "handled": 6844,
      "stuffed": 6845,
      "closure": 6846,
      "begging": 6847,
      "denied": 6848,
      "explic": 6849,
      "deserving": 6850,
      "answering": 6851,
      "siblings": 6852,
      "bake": 6853,
      "nesses": 6854,
      "randomly": 6855,
      "contradic": 6856,
      "achievement": 6857,
      "deepest": 6858,
      "leadership": 6859,
      "schol": 6860,
      "excluded": 6861,
      "mystery": 6862,
      "intimate": 6863,
      "champion": 6864,
      "citizens": 6865,
      "employees": 6866,
      "chicago": 6867,
      "candidate": 6868,
      "savior": 6869,
      "western": 6870,
      "chemistry": 6871,
      "intrigu": 6872,
      "cities": 6873,
      "fought": 6874,
      "hills": 6875,
      "ole": 6876,
      "rising": 6877,
      "requi": 6878,
      "ativity": 6879,
      "erie": 6880,
      "encountered": 6881,
      "bee": 6882,
      "soc": 6883,
      "whining": 6884,
      "chal": 6885,
      "likeable": 6886,
      "une": 6887,
      "geek": 6888,
      "percent": 6889,
      "inder": 6890,
      "arded": 6891,
      "evenings": 6892,
      "istically": 6893,
      "newly": 6894,
      "launch": 6895,
      "blogged": 6896,
      "swee": 6897,
      "cheers": 6898,
      "offensive": 6899,
      "defeat": 6900,
      "devil": 6901,
      "touches": 6902,
      "expectation": 6903,
      "hunting": 6904,
      "killer": 6905,
      "testing": 6906,
      "partially": 6907,
      "communities": 6908,
      "texts": 6909,
      "connecting": 6910,
      "satisfying": 6911,
      "expert": 6912,
      "dollar": 6913,
      "graduation": 6914,
      "breasts": 6915,
      "pumped": 6916,
      "boundaries": 6917,
      "karma": 6918,
      "chips": 6919,
      "waters": 6920,
      "blues": 6921,
      "iraq": 6922,
      "verbally": 6923,
      "dreamed": 6924,
      "righteous": 6925,
      "cers": 6926,
      "gaming": 6927,
      "rust": 6928,
      "wings": 6929,
      "ferocious": 6930,
      "rein": 6931,
      "forum": 6932,
      "entit": 6933,
      "sume": 6934,
      "iffe": 6935,
      "ttes": 6936,
      "theyd": 6937,
      "bob": 6938,
      "bol": 6939,
      "prop": 6940,
      "procra": 6941,
      "mans": 6942,
      "heartbeat": 6943,
      "suring": 6944,
      "decade": 6945,
      "sym": 6946,
      "mato": 6947,
      "pussy": 6948,
      "welcoming": 6949,
      "damned": 6950,
      "numer": 6951,
      "malink": 6952,
      "blown": 6953,
      "hunt": 6954,
      "drops": 6955,
      "cleaned": 6956,
      "negativity": 6957,
      "transp": 6958,
      "discussions": 6959,
      "perceived": 6960,
      "pouring": 6961,
      "stroke": 6962,
      "cultural": 6963,
      "rejuvenated": 6964,
      "procrast": 6965,
      "jane": 6966,
      "osition": 6967,
      "uri": 6968,
      "vag": 6969,
      "eli": 6970,
      "ancing": 6971,
      "itd": 6972,
      "lee": 6973,
      "tier": 6974,
      "adoption": 6975,
      "uninspired": 6976,
      "neat": 6977,
      "shining": 6978,
      "permalink": 6979,
      "spont": 6980,
      "eps": 6981,
      "relatives": 6982,
      "downright": 6983,
      "carol": 6984,
      "deciding": 6985,
      "latter": 6986,
      "steam": 6987,
      "votes": 6988,
      "pointing": 6989,
      "satisfy": 6990,
      "ruined": 6991,
      "burger": 6992,
      "cuts": 6993,
      "drivers": 6994,
      "itchy": 6995,
      "flutter": 6996,
      "describing": 6997,
      "fraud": 6998,
      "flex": 6999,
      "dearly": 7000,
      "grabbed": 7001,
      "cherish": 7002,
      "linked": 7003,
      "independence": 7004,
      "significantly": 7005,
      "remaining": 7006,
      "survived": 7007,
      "render": 7008,
      "citizen": 7009,
      "thighs": 7010,
      "girly": 7011,
      "quotes": 7012,
      "horizon": 7013,
      "aust": 7014,
      "ctic": 7015,
      "dining": 7016,
      "gie": 7017,
      "nin": 7018,
      "pra": 7019,
      "pitch": 7020,
      "inser": 7021,
      "inations": 7022,
      "align": 7023,
      "isprivate": 7024,
      "lyn": 7025,
      "absur": 7026,
      "rolled": 7027,
      "caress": 7028,
      "intend": 7029,
      "tale": 7030,
      "download": 7031,
      "sins": 7032,
      "phil": 7033,
      "smal": 7034,
      "ysis": 7035,
      "ankle": 7036,
      "cycling": 7037,
      "stays": 7038,
      "decidedly": 7039,
      "bert": 7040,
      "appet": 7041,
      "graphic": 7042,
      "boards": 7043,
      "claims": 7044,
      "digital": 7045,
      "texas": 7046,
      "wandering": 7047,
      "demanding": 7048,
      "criticism": 7049,
      "assignments": 7050,
      "fascin": 7051,
      "insanely": 7052,
      "tourist": 7053,
      "olymp": 7054,
      "twinge": 7055,
      "syndrome": 7056,
      "requires": 7057,
      "echo": 7058,
      "hous": 7059,
      "ik": 7060,
      "sized": 7061,
      "yep": 7062,
      "za": 7063,
      "input": 7064,
      "elim": 7065,
      "lemon": 7066,
      "formal": 7067,
      "unting": 7068,
      "maid": 7069,
      "shiny": 7070,
      "shirts": 7071,
      "pow": 7072,
      "vial": 7073,
      "desired": 7074,
      "iphone": 7075,
      "century": 7076,
      "obsession": 7077,
      "luckily": 7078,
      "freaked": 7079,
      "males": 7080,
      "temple": 7081,
      "cliff": 7082,
      "benign": 7083,
      "dads": 7084,
      "strive": 7085,
      "detached": 7086,
      "raced": 7087,
      "authority": 7088,
      "sexuality": 7089,
      "consuming": 7090,
      "addicted": 7091,
      "firmly": 7092,
      "employed": 7093,
      "volunteer": 7094,
      "professor": 7095,
      "entitled": 7096,
      "absurd": 7097,
      "fitting": 7098,
      "kim": 7099,
      "mam": 7100,
      "pad": 7101,
      "rack": 7102,
      "sans": 7103,
      "scold": 7104,
      "ini": 7105,
      "anut": 7106,
      "fee": 7107,
      "tox": 7108,
      "nomin": 7109,
      "abby": 7110,
      "forces": 7111,
      "cozy": 7112,
      "peanut": 7113,
      "illustr": 7114,
      "compens": 7115,
      "woo": 7116,
      "stolen": 7117,
      "fired": 7118,
      "carto": 7119,
      "prescri": 7120,
      "pause": 7121,
      "greg": 7122,
      "crew": 7123,
      "rainbow": 7124,
      "interactions": 7125,
      "sounding": 7126,
      "protection": 7127,
      "concerning": 7128,
      "publicly": 7129,
      "package": 7130,
      "sensations": 7131,
      "contract": 7132,
      "pursuing": 7133,
      "practicing": 7134,
      "alternative": 7135,
      "creeping": 7136,
      "intellectual": 7137,
      "poems": 7138,
      "dict": 7139,
      "intervention": 7140,
      "contrast": 7141,
      "appetite": 7142,
      "bac": 7143,
      "cen": 7144,
      "greas": 7145,
      "knot": 7146,
      "nically": 7147,
      "pup": 7148,
      "scru": 7149,
      "injustice": 7150,
      "reput": 7151,
      "tops": 7152,
      "lovers": 7153,
      "outing": 7154,
      "accent": 7155,
      "coworkers": 7156,
      "unusually": 7157,
      "allah": 7158,
      "deter": 7159,
      "exhilar": 7160,
      "odds": 7161,
      "agony": 7162,
      "sauce": 7163,
      "tickets": 7164,
      "fog": 7165,
      "compelled": 7166,
      "joe": 7167,
      "stron": 7168,
      "nerve": 7169,
      "cleans": 7170,
      "funeral": 7171,
      "voting": 7172,
      "athize": 7173,
      "denial": 7174,
      "venue": 7175,
      "visits": 7176,
      "bitterness": 7177,
      "spoiled": 7178,
      "slower": 7179,
      "transport": 7180,
      "sentences": 7181,
      "fourth": 7182,
      "dynam": 7183,
      "increased": 7184,
      "guns": 7185,
      "consumed": 7186,
      "separated": 7187,
      "depths": 7188,
      "mysterious": 7189,
      "updates": 7190,
      "gathering": 7191,
      "employee": 7192,
      "clinic": 7193,
      "punishment": 7194,
      "costume": 7195,
      "cinema": 7196,
      "glorious": 7197,
      "volume": 7198,
      "inevitably": 7199,
      "numerous": 7200,
      "dj": 7201,
      "eco": 7202,
      "gul": 7203,
      "mous": 7204,
      "sab": 7205,
      "inqu": 7206,
      "feared": 7207,
      "rev": 7208,
      "stitch": 7209,
      "stiff": 7210,
      "leaf": 7211,
      "whim": 7212,
      "tile": 7213,
      "peak": 7214,
      "cane": 7215,
      "popping": 7216,
      "istan": 7217,
      "tap": 7218,
      "managing": 7219,
      "yearning": 7220,
      "duck": 7221,
      "downstairs": 7222,
      "france": 7223,
      "comforted": 7224,
      "delay": 7225,
      "deliber": 7226,
      "rainy": 7227,
      "observ": 7228,
      "consideration": 7229,
      "gradually": 7230,
      "desperation": 7231,
      "fields": 7232,
      "privacy": 7233,
      "recipro": 7234,
      "ultimate": 7235,
      "thirty": 7236,
      "techniques": 7237,
      "injured": 7238,
      "contemplating": 7239,
      "dialogue": 7240,
      "ingredients": 7241,
      "bush": 7242,
      "btw": 7243,
      "gag": 7244,
      "jas": 7245,
      "ooh": 7246,
      "sang": 7247,
      "tched": 7248,
      "rec": 7249,
      "republi": 7250,
      "orgas": 7251,
      "forgiving": 7252,
      "motive": 7253,
      "holic": 7254,
      "unjust": 7255,
      "tery": 7256,
      "persist": 7257,
      "sheets": 7258,
      "manic": 7259,
      "supply": 7260,
      "paraly": 7261,
      "resting": 7262,
      "lightly": 7263,
      "crushed": 7264,
      "smarter": 7265,
      "generations": 7266,
      "elsewhere": 7267,
      "creates": 7268,
      "ficial": 7269,
      "insecurity": 7270,
      "appeal": 7271,
      "favorites": 7272,
      "complaints": 7273,
      "organised": 7274,
      "involves": 7275,
      "sticky": 7276,
      "daniel": 7277,
      "meaningless": 7278,
      "purchased": 7279,
      "kissed": 7280,
      "cherished": 7281,
      "darn": 7282,
      "heartedly": 7283,
      "conservative": 7284,
      "athe": 7285,
      "dc": 7286,
      "dang": 7287,
      "drum": 7288,
      "een": 7289,
      "ipod": 7290,
      "sid": 7291,
      "wreck": 7292,
      "xi": 7293,
      "eling": 7294,
      "anne": 7295,
      "oned": 7296,
      "geo": 7297,
      "goss": 7298,
      "teens": 7299,
      "epic": 7300,
      "vibes": 7301,
      "histori": 7302,
      "pron": 7303,
      "forehead": 7304,
      "owned": 7305,
      "preser": 7306,
      "oming": 7307,
      "trimester": 7308,
      "territory": 7309,
      "resident": 7310,
      "cumb": 7311,
      "positions": 7312,
      "bench": 7313,
      "qualified": 7314,
      "instance": 7315,
      "recognition": 7316,
      "squir": 7317,
      "frozen": 7318,
      "bruised": 7319,
      "stretching": 7320,
      "outsider": 7321,
      "effectively": 7322,
      "crawl": 7323,
      "inevitable": 7324,
      "loathing": 7325,
      "woeful": 7326,
      "homeless": 7327,
      "glimpse": 7328,
      "republican": 7329,
      "dive": 7330,
      "mush": 7331,
      "sses": 7332,
      "ware": 7333,
      "xx": 7334,
      "iner": 7335,
      "rey": 7336,
      "remarks": 7337,
      "attain": 7338,
      "ander": 7339,
      "stared": 7340,
      "ament": 7341,
      "veter": 7342,
      "acular": 7343,
      "updating": 7344,
      "ifying": 7345,
      "discrimin": 7346,
      "affirm": 7347,
      "gran": 7348,
      "grind": 7349,
      "compul": 7350,
      "angels": 7351,
      "heartbreak": 7352,
      "opens": 7353,
      "trained": 7354,
      "burnt": 7355,
      "distract": 7356,
      "grows": 7357,
      "spots": 7358,
      "commented": 7359,
      "approval": 7360,
      "grandparents": 7361,
      "anguished": 7362,
      "property": 7363,
      "graphy": 7364,
      "arrival": 7365,
      "hollow": 7366,
      "guts": 7367,
      "princi": 7368,
      "frequent": 7369,
      "sacred": 7370,
      "costs": 7371,
      "liberal": 7372,
      "resistance": 7373,
      "distinctly": 7374,
      "cabin": 7375,
      "africa": 7376,
      "neutral": 7377,
      "rhythm": 7378,
      "fty": 7379,
      "mouse": 7380,
      "pc": 7381,
      "wtf": 7382,
      "yr": 7383,
      "elf": 7384,
      "febru": 7385,
      "remed": 7386,
      "retro": 7387,
      "chronic": 7388,
      "coding": 7389,
      "icing": 7390,
      "gol": 7391,
      "weir": 7392,
      "arest": 7393,
      "artwork": 7394,
      "popped": 7395,
      "perception": 7396,
      "spa": 7397,
      "boston": 7398,
      "foo": 7399,
      "joking": 7400,
      "backwards": 7401,
      "pressing": 7402,
      "obst": 7403,
      "submit": 7404,
      "licking": 7405,
      "purple": 7406,
      "legend": 7407,
      "laughs": 7408,
      "screwed": 7409,
      "teenagers": 7410,
      "technically": 7411,
      "hugely": 7412,
      "betrayal": 7413,
      "portra": 7414,
      "repeating": 7415,
      "brighter": 7416,
      "correctly": 7417,
      "investment": 7418,
      "adapt": 7419,
      "hangover": 7420,
      "succeeded": 7421,
      "cuddle": 7422,
      "slave": 7423,
      "judgment": 7424,
      "squeeze": 7425,
      "contribution": 7426,
      "scheme": 7427,
      "caffeine": 7428,
      "soccer": 7429,
      "smallest": 7430,
      "february": 7431,
      "efficient": 7432,
      "rang": 7433,
      "rating": 7434,
      "witty": 7435,
      "inappropriate": 7436,
      "eland": 7437,
      "reacting": 7438,
      "oul": 7439,
      "envel": 7440,
      "alle": 7441,
      "gered": 7442,
      "icon": 7443,
      "shorter": 7444,
      "poly": 7445,
      "plants": 7446,
      "stones": 7447,
      "logist": 7448,
      "buck": 7449,
      "runners": 7450,
      "kidding": 7451,
      "obtain": 7452,
      "produced": 7453,
      "curse": 7454,
      "freezing": 7455,
      "warn": 7456,
      "childrens": 7457,
      "drives": 7458,
      "disturbing": 7459,
      "circumstance": 7460,
      "consumer": 7461,
      "associate": 7462,
      "suicidal": 7463,
      "deleted": 7464,
      "methods": 7465,
      "nightmares": 7466,
      "difficulties": 7467,
      "narrow": 7468,
      "technique": 7469,
      "destructive": 7470,
      "boredom": 7471,
      "confronted": 7472,
      "anniversary": 7473,
      "euphor": 7474,
      "bin": 7475,
      "cart": 7476,
      "faint": 7477,
      "gish": 7478,
      "gage": 7479,
      "gans": 7480,
      "las": 7481,
      "lined": 7482,
      "swell": 7483,
      "santa": 7484,
      "rer": 7485,
      "iter": 7486,
      "ari": 7487,
      "vering": 7488,
      "outlook": 7489,
      "mos": 7490,
      "indu": 7491,
      "indiffe": 7492,
      "essence": 7493,
      "spider": 7494,
      "proced": 7495,
      "morally": 7496,
      "talents": 7497,
      "opti": 7498,
      "distress": 7499,
      "sweater": 7500,
      "cured": 7501,
      "stumbled": 7502,
      "marily": 7503,
      "weirdly": 7504,
      "frustrations": 7505,
      "household": 7506,
      "differences": 7507,
      "figures": 7508,
      "statements": 7509,
      "climate": 7510,
      "attle": 7511,
      "straw": 7512,
      "furnit": 7513,
      "attempted": 7514,
      "continuously": 7515,
      "lectures": 7516,
      "apologise": 7517,
      "depends": 7518,
      "claimed": 7519,
      "bullied": 7520,
      "fingertips": 7521,
      "separation": 7522,
      "impressive": 7523,
      "brows": 7524,
      "leaning": 7525,
      "congrats": 7526,
      "twisted": 7527,
      "panicked": 7528,
      "cautiously": 7529,
      "florida": 7530,
      "grieving": 7531,
      "wealth": 7532,
      "javas": 7533,
      "powder": 7534,
      "ake": 7535,
      "aun": 7536,
      "dash": 7537,
      "fs": 7538,
      "fid": 7539,
      "gel": 7540,
      "opted": 7541,
      "scares": 7542,
      "wre": 7543,
      "yay": 7544,
      "inity": 7545,
      "ena": 7546,
      "ald": 7547,
      "wiped": 7548,
      "willi": 7549,
      "colu": 7550,
      "unbear": 7551,
      "dod": 7552,
      "reduce": 7553,
      "shr": 7554,
      "pover": 7555,
      "pret": 7556,
      "pers": 7557,
      "perpe": 7558,
      "kingdom": 7559,
      "pled": 7560,
      "tem": 7561,
      "overweight": 7562,
      "amazon": 7563,
      "horses": 7564,
      "tumbl": 7565,
      "disappointing": 7566,
      "german": 7567,
      "ential": 7568,
      "busines": 7569,
      "hopelessly": 7570,
      "sentiment": 7571,
      "directed": 7572,
      "covering": 7573,
      "deadline": 7574,
      "accomplishing": 7575,
      "recording": 7576,
      "energies": 7577,
      "pounding": 7578,
      "woods": 7579,
      "placing": 7580,
      "contributed": 7581,
      "invested": 7582,
      "global": 7583,
      "convenient": 7584,
      "bonus": 7585,
      "vegetables": 7586,
      "establish": 7587,
      "jewelry": 7588,
      "lovable": 7589,
      "adrenaline": 7590,
      "canadian": 7591,
      "furniture": 7592,
      "dreading": 7593,
      "fand": 7594,
      "jail": 7595,
      "oke": 7596,
      "sided": 7597,
      "slack": 7598,
      "rehear": 7599,
      "chin": 7600,
      "wives": 7601,
      "adam": 7602,
      "sue": 7603,
      "hem": 7604,
      "colo": 7605,
      "nephe": 7606,
      "usions": 7607,
      "prog": 7608,
      "tearing": 7609,
      "gru": 7610,
      "implic": 7611,
      "navig": 7612,
      "chores": 7613,
      "mism": 7614,
      "wardly": 7615,
      "nerd": 7616,
      "careless": 7617,
      "carbs": 7618,
      "clearer": 7619,
      "prize": 7620,
      "decades": 7621,
      "wonders": 7622,
      "listed": 7623,
      "stealing": 7624,
      "schooling": 7625,
      "countless": 7626,
      "visitors": 7627,
      "southern": 7628,
      "winner": 7629,
      "explains": 7630,
      "protein": 7631,
      "cleanse": 7632,
      "darker": 7633,
      "inclined": 7634,
      "fuckin": 7635,
      "slam": 7636,
      "slipping": 7637,
      "snar": 7638,
      "fridge": 7639,
      "arguing": 7640,
      "shiel": 7641,
      "knocked": 7642,
      "eyed": 7643,
      "stares": 7644,
      "shelf": 7645,
      "spinning": 7646,
      "convention": 7647,
      "diagnosed": 7648,
      "vomit": 7649,
      "comprehend": 7650,
      "vitam": 7651,
      "liquid": 7652,
      "gossip": 7653,
      "tumblr": 7654,
      "businesses": 7655,
      "gloss": 7656,
      "jess": 7657,
      "lur": 7658,
      "ng": 7659,
      "pel": 7660,
      "ux": 7661,
      "infli": 7662,
      "toll": 7663,
      "toxic": 7664,
      "meh": 7665,
      "hack": 7666,
      "sew": 7667,
      "root": 7668,
      "rocks": 7669,
      "unfamiliar": 7670,
      "ironic": 7671,
      "rah": 7672,
      "contest": 7673,
      "upbeat": 7674,
      "poke": 7675,
      "powers": 7676,
      "prec": 7677,
      "propo": 7678,
      "intent": 7679,
      "prone": 7680,
      "brac": 7681,
      "menu": 7682,
      "phen": 7683,
      "painfully": 7684,
      "mighty": 7685,
      "tube": 7686,
      "calcul": 7687,
      "enjoyment": 7688,
      "earning": 7689,
      "consci": 7690,
      "corporate": 7691,
      "warming": 7692,
      "regain": 7693,
      "device": 7694,
      "dave": 7695,
      "berries": 7696,
      "shortly": 7697,
      "appearing": 7698,
      "ounce": 7699,
      "tware": 7700,
      "slipped": 7701,
      "software": 7702,
      "stunning": 7703,
      "keyboard": 7704,
      "technical": 7705,
      "improving": 7706,
      "thood": 7707,
      "passionately": 7708,
      "combined": 7709,
      "interviews": 7710,
      "captured": 7711,
      "officer": 7712,
      "paintings": 7713,
      "protecting": 7714,
      "maintaining": 7715,
      "breastfeeding": 7716,
      "leness": 7717,
      "empower": 7718,
      "coughing": 7719,
      "electri": 7720,
      "shadows": 7721,
      "crawling": 7722,
      "cramps": 7723,
      "interrupted": 7724,
      "philosophy": 7725,
      "suffocated": 7726,
      "sluggish": 7727,
      "yummy": 7728,
      "cass": 7729,
      "ckets": 7730,
      "fc": 7731,
      "ito": 7732,
      "kate": 7733,
      "lag": 7734,
      "sd": 7735,
      "signing": 7736,
      "wp": 7737,
      "wins": 7738,
      "yi": 7739,
      "zes": 7740,
      "elo": 7741,
      "retire": 7742,
      "tomato": 7743,
      "edgy": 7744,
      "alter": 7745,
      "alized": 7746,
      "alert": 7747,
      "asian": 7748,
      "soak": 7749,
      "lifel": 7750,
      "chunk": 7751,
      "rie": 7752,
      "suits": 7753,
      "withdra": 7754,
      "unit": 7755,
      "unwilling": 7756,
      "dol": 7757,
      "weap": 7758,
      "users": 7759,
      "upload": 7760,
      "agent": 7761,
      "dissa": 7762,
      "grant": 7763,
      "vivid": 7764,
      "enery": 7765,
      "partners": 7766,
      "terrifying": 7767,
      "phor": 7768,
      "wallet": 7769,
      "hire": 7770,
      "raining": 7771,
      "welve": 7772,
      "rubbing": 7773,
      "creator": 7774,
      "embracing": 7775,
      "healed": 7776,
      "beats": 7777,
      "punk": 7778,
      "folk": 7779,
      "touchy": 7780,
      "isolation": 7781,
      "flare": 7782,
      "aneous": 7783,
      "kills": 7784,
      "factors": 7785,
      "sticks": 7786,
      "ceptions": 7787,
      "bounce": 7788,
      "starving": 7789,
      "suggestion": 7790,
      "budd": 7791,
      "council": 7792,
      "consume": 7793,
      "models": 7794,
      "affects": 7795,
      "minority": 7796,
      "manipulated": 7797,
      "flavor": 7798,
      "permanently": 7799,
      "instinct": 7800,
      "bleeding": 7801,
      "discovery": 7802,
      "gluten": 7803,
      "strongest": 7804,
      "withdrawal": 7805,
      "eternal": 7806,
      "jus": 7807,
      "km": 7808,
      "lun": 7809,
      "nas": 7810,
      "pse": 7811,
      "troll": 7812,
      "twelve": 7813,
      "ued": 7814,
      "ull": 7815,
      "ura": 7816,
      "resolution": 7817,
      "represents": 7818,
      "andy": 7819,
      "stur": 7820,
      "amy": 7821,
      "accusto": 7822,
      "ripped": 7823,
      "supre": 7824,
      "conde": 7825,
      "canc": 7826,
      "discount": 7827,
      "civil": 7828,
      "tras": 7829,
      "stole": 7830,
      "azz": 7831,
      "oped": 7832,
      "poster": 7833,
      "bron": 7834,
      "leap": 7835,
      "goddamn": 7836,
      "girlfriends": 7837,
      "slighted": 7838,
      "controlled": 7839,
      "brag": 7840,
      "dragon": 7841,
      "gene": 7842,
      "engaging": 7843,
      "stretched": 7844,
      "existing": 7845,
      "fleet": 7846,
      "records": 7847,
      "splash": 7848,
      "examples": 7849,
      "central": 7850,
      "collabor": 7851,
      "selection": 7852,
      "smoothly": 7853,
      "requests": 7854,
      "panicky": 7855,
      "dvd": 7856,
      "infertility": 7857,
      "arrogant": 7858,
      "vehicle": 7859,
      "scholar": 7860,
      "reputation": 7861,
      "javascript": 7862,
      "accustomed": 7863,
      "ffin": 7864,
      "grain": 7865,
      "jet": 7866,
      "nour": 7867,
      "ras": 7868,
      "smith": 7869,
      "inches": 7870,
      "remix": 7871,
      "itis": 7872,
      "arre": 7873,
      "chief": 7874,
      "versus": 7875,
      "esy": 7876,
      "unsafe": 7877,
      "goof": 7878,
      "cage": 7879,
      "constit": 7880,
      "conquer": 7881,
      "everythings": 7882,
      "implement": 7883,
      "stray": 7884,
      "mise": 7885,
      "downtown": 7886,
      "certi": 7887,
      "mont": 7888,
      "omen": 7889,
      "trivial": 7890,
      "crite": 7891,
      "mentor": 7892,
      "fundam": 7893,
      "loosing": 7894,
      "runner": 7895,
      "tub": 7896,
      "digest": 7897,
      "guessed": 7898,
      "olds": 7899,
      "observe": 7900,
      "viewer": 7901,
      "appointments": 7902,
      "stuffs": 7903,
      "lingering": 7904,
      "weights": 7905,
      "determination": 7906,
      "nearby": 7907,
      "gesture": 7908,
      "virtual": 7909,
      "idiots": 7910,
      "emily": 7911,
      "destiny": 7912,
      "digging": 7913,
      "profit": 7914,
      "drunken": 7915,
      "remained": 7916,
      "snake": 7917,
      "restaurants": 7918,
      "immig": 7919,
      "promotion": 7920,
      "hips": 7921,
      "predictable": 7922,
      "abortion": 7923,
      "vibrant": 7924,
      "hormonal": 7925,
      "intimacy": 7926,
      "niece": 7927,
      "occupied": 7928,
      "luxury": 7929,
      "sufficiently": 7930,
      "institution": 7931,
      "sketch": 7932,
      "ritual": 7933,
      "bizarre": 7934,
      "treadmill": 7935,
      "veggies": 7936,
      "insert": 7937,
      "historical": 7938,
      "bble": 7939,
      "fade": 7940,
      "loun": 7941,
      "mant": 7942,
      "pud": 7943,
      "tly": 7944,
      "inherent": 7945,
      "reminis": 7946,
      "stack": 7947,
      "lem": 7948,
      "bean": 7949,
      "arse": 7950,
      "sober": 7951,
      "nope": 7952,
      "kest": 7953,
      "yous": 7954,
      "coke": 7955,
      "unfairly": 7956,
      "poll": 7957,
      "herit": 7958,
      "combo": 7959,
      "fox": 7960,
      "owning": 7961,
      "prices": 7962,
      "casm": 7963,
      "formula": 7964,
      "piss": 7965,
      "regrets": 7966,
      "supporters": 7967,
      "supposedly": 7968,
      "slim": 7969,
      "slice": 7970,
      "smelling": 7971,
      "professionals": 7972,
      "crossing": 7973,
      "performing": 7974,
      "texting": 7975,
      "bullet": 7976,
      "sources": 7977,
      "practices": 7978,
      "appropriately": 7979,
      "witnessed": 7980,
      "promote": 7981,
      "skipped": 7982,
      "intellectually": 7983,
      "instincts": 7984,
      "reduced": 7985,
      "dings": 7986,
      "jug": 7987,
      "nan": 7988,
      "passa": 7989,
      "sane": 7990,
      "tay": 7991,
      "xed": 7992,
      "anony": 7993,
      "rene": 7994,
      "atl": 7995,
      "toast": 7996,
      "encies": 7997,
      "gown": 7998,
      "exagger": 7999
    },
    "merges": [
      "t h",
      "i n",
      "e l",
      "a n",
      "f e",
      "in g",
      "fe el",
      "r e",
      "th e",
      "a t",
      "o u",
      "t o",
      "o n",
      "e r",
      "e n",
      "e d",
      "an d",
      "s t",
      "i t",
      "a l",
      "o r",
      "i s",
      "m e",
      "l e",
      "a s",
      "b e",
      "a m",
      "a r",
      "v e",
      "o f",
      "feel ing",
      "th at",
      "s o",
      "m y",
      "n o",
      "l y",
      "l i",
      "h a",
      "w h",
      "k e",
      "s e",
      "c h",
      "t i",
      "a y",
      "a b",
      "v er",
      "w i",
      "e s",
      "l o",
      "f or",
      "ou t",
      "u t",
      "g h",
      "li ke",
      "i d",
      "a c",
      "m o",
      "r o",
      "a d",
      "l d",
      "r i",
      "en t",
      "w as",
      "h o",
      "s u",
      "ha ve",
      "h e",
      "y ou",
      "c o",
      "b ut",
      "wi th",
      "l l",
      "u n",
      "th is",
      "d o",
      "g e",
      "i c",
      "g o",
      "no t",
      "w e",
      "al ly",
      "u st",
      "an t",
      "p e",
      "u l",
      "c a",
      "s s",
      "no w",
      "n e",
      "th ing",
      "so me",
      "gh t",
      "on e",
      "ab out",
      "ou ld",
      "i r",
      "al l",
      "ver y",
      "p p",
      "i on",
      "j ust",
      "c e",
      "d e",
      "u se",
      "t er",
      "wh en",
      "m p",
      "ou s",
      "r a",
      "a re",
      "i ve",
      "m a",
      "f ul",
      "c on",
      "u s",
      "the r",
      "u p",
      "mo re",
      "w or",
      "re d",
      "ti me",
      "ca use",
      "d ay",
      "ar t",
      "w ay",
      "s el",
      "e x",
      "p le",
      "i f",
      "at e",
      "en d",
      "c an",
      "be cause",
      "u r",
      "ge t",
      "n t",
      "s h",
      "p o",
      "k now",
      "sel f",
      "p re",
      "p er",
      "an y",
      "r y",
      "k ing",
      "i ll",
      "ho w",
      "re ally",
      "a in",
      "wh at",
      "at ed",
      "in d",
      "el y",
      "o d",
      "it t",
      "b y",
      "a g",
      "d on",
      "ou gh",
      "be en",
      "w ant",
      "t t",
      "c t",
      "e v",
      "ab le",
      "es s",
      "ro m",
      "i m",
      "my self",
      "w ould",
      "on g",
      "the y",
      "th in",
      "wi ll",
      "o k",
      "a st",
      "ha d",
      "at ion",
      "d id",
      "wh o",
      "ma ke",
      "q u",
      "i l",
      "pe o",
      "peo ple",
      "itt le",
      "m ent",
      "ti on",
      "l ittle",
      "f rom",
      "n d",
      "b it",
      "ar d",
      "be ing",
      "s p",
      "el l",
      "h er",
      "ou r",
      "b o",
      "th an",
      "le ss",
      "co m",
      "p ro",
      "d is",
      "e very",
      "m u",
      "the m",
      "e t",
      "o l",
      "p l",
      "ac k",
      "s a",
      "v ing",
      "thin k",
      "o ther",
      "wh i",
      "c i",
      "t e",
      "i ght",
      "se e",
      "w n",
      "the re",
      "ac t",
      "ou nd",
      "ev en",
      "st ill",
      "m b",
      "it e",
      "o ver",
      "or t",
      "it s",
      "ti c",
      "t r",
      "a f",
      "e p",
      "i g",
      "h im",
      "c k",
      "mu ch",
      "f o",
      "c ould",
      "li fe",
      "lo ve",
      "ne ed",
      "ac e",
      "is h",
      "ha pp",
      "d er",
      "i st",
      "f ri",
      "as s",
      "re ad",
      "g r",
      "h el",
      "some thing",
      "id e",
      "g u",
      "t a",
      "thing s",
      "v ed",
      "y e",
      "go ing",
      "s ay",
      "mo st",
      "it y",
      "u re",
      "st art",
      "in e",
      "to o",
      "don t",
      "co mp",
      "fri end",
      "v i",
      "i mp",
      "n a",
      "s he",
      "j o",
      "in t",
      "r el",
      "co me",
      "w o",
      "wor k",
      "h as",
      "b ack",
      "w r",
      "st r",
      "an g",
      "you r",
      "way s",
      "lo w",
      "tt y",
      "go od",
      "h is",
      "a ch",
      "ri ght",
      "wh e",
      "o se",
      "t ing",
      "s to",
      "er s",
      "f a",
      "re ss",
      "ad e",
      "b le",
      "sh ould",
      "in to",
      "con t",
      "m ed",
      "pre tty",
      "the ir",
      "a pp",
      "hel p",
      "al ways",
      "s on",
      "m an",
      "whi ch",
      "t y",
      "ag ain",
      "af ter",
      "re at",
      "n ing",
      "time s",
      "p r",
      "su re",
      "le t",
      "p t",
      "ne w",
      "t ry",
      "ye ar",
      "on ly",
      "d u",
      "th ough",
      "i ous",
      "the se",
      "al so",
      "ch o",
      "i e",
      "whe re",
      "the n",
      "l a",
      "ou ght",
      "m is",
      "feel s",
      "s pe",
      "b el",
      "ic k",
      "lo ok",
      "w ard",
      "i z",
      "s it",
      "l ong",
      "en er",
      "e k",
      "he re",
      "m or",
      "ne ver",
      "feeling s",
      "happ y",
      "per son",
      "we re",
      "k ind",
      "for t",
      "us ed",
      "w on",
      "c ou",
      "t al",
      "s ha",
      "c ant",
      "w ell",
      "be t",
      "to day",
      "ho me",
      "we ek",
      "m ay",
      "su pp",
      "do wn",
      "he art",
      "re al",
      "fo re",
      "en ed",
      "p art",
      "ar ound",
      "f in",
      "lo g",
      "c l",
      "b l",
      "re e",
      "f i",
      "th ose",
      "of f",
      "th r",
      "go t",
      "i ly",
      "lo t",
      "a z",
      "f r",
      "u d",
      "re f",
      "did nt",
      "m ade",
      "th ought",
      "e ver",
      "u ally",
      "f u",
      "p ar",
      "en ce",
      "d es",
      "thr ough",
      "n er",
      "m s",
      "f ind",
      "s in",
      "o p",
      "f t",
      "some one",
      "whi le",
      "do ing",
      "mb er",
      "j e",
      "f el",
      "ta ke",
      "i es",
      "wh y",
      "ic e",
      "ha ving",
      "m i",
      "day s",
      "ce pt",
      "g l",
      "re as",
      "m any",
      "n ight",
      "jo y",
      "make s",
      "un der",
      "k ed",
      "qu ite",
      "ress ed",
      "s ide",
      "an ge",
      "ho pe",
      "a ge",
      "re st",
      "po st",
      "fel t",
      "t en",
      "any thing",
      "s en",
      "w a",
      "l ast",
      "s ed",
      "b r",
      "sin ce",
      "h u",
      "than k",
      "na me",
      "be fore",
      "i v",
      "an s",
      "ct ed",
      "per i",
      "act ually",
      "o wn",
      "st and",
      "c er",
      "en ough",
      "b ad",
      "m on",
      "am az",
      "bet ter",
      "get ting",
      "t ell",
      "g ed",
      "do es",
      "d ist",
      "con f",
      "m in",
      "le ft",
      "c ar",
      "friend s",
      "su ch",
      "c le",
      "ple as",
      "pre ss",
      "at ch",
      "f ir",
      "re me",
      "read y",
      "i p",
      "tr u",
      "h tt",
      "htt p",
      "a k",
      "i ld",
      "b log",
      "wor ld",
      "f am",
      "ac cept",
      "with out",
      "an ce",
      "e mo",
      "com fort",
      "b ab",
      "a way",
      "g ive",
      "p ut",
      "ro w",
      "s ad",
      "ke ep",
      "pre s",
      "su r",
      "every thing",
      "o m",
      "ul ar",
      "some times",
      "od y",
      "p ri",
      "t ri",
      "bo ok",
      "fe w",
      "p a",
      "fir st",
      "li ght",
      "ti ve",
      "ter ri",
      "de c",
      "m ind",
      "emo tion",
      "at ing",
      "ti m",
      "mo ment",
      "c r",
      "fi ed",
      "s ho",
      "m en",
      "s at",
      "c ess",
      "sa id",
      "t ain",
      "s we",
      "b u",
      "p ass",
      "n ess",
      "it ing",
      "a w",
      "k en",
      "re s",
      "reme mber",
      "start ed",
      "p h",
      "b ro",
      "d el",
      "l at",
      "won der",
      "t ur",
      "c tion",
      "g re",
      "to r",
      "p ain",
      "s m",
      "s er",
      "re n",
      "t ra",
      "b ody",
      "ex c",
      "pl ay",
      "n ed",
      "in c",
      "le a",
      "li st",
      "s ing",
      "t ed",
      "f un",
      "lo o",
      "h and",
      "st e",
      "u g",
      "h ref",
      "ra ther",
      "he ad",
      "c ra",
      "h ur",
      "h or",
      "g ener",
      "wor th",
      "w al",
      "h ate",
      "ch ild",
      "ir l",
      "ve s",
      "c u",
      "r un",
      "try ing",
      "go d",
      "t s",
      "ch e",
      "fam ily",
      "c ent",
      "v al",
      "ir d",
      "st u",
      "g irl",
      "m ight",
      "it ed",
      "b ed",
      "lo ved",
      "y s",
      "m ar",
      "c all",
      "s y",
      "it ated",
      "l u",
      "comfort able",
      "v ent",
      "h ard",
      "imp ort",
      "sa me",
      "h i",
      "pl ace",
      "c lo",
      "g y",
      "g a",
      "v o",
      "t u",
      "be g",
      "b re",
      "us h",
      "s how",
      "supp ort",
      "n y",
      "ma king",
      "c re",
      "cont ent",
      "import ant",
      "str ong",
      "amaz ing",
      "an k",
      "fe r",
      "s le",
      "year s",
      "su red",
      "al one",
      "y et",
      "t wo",
      "wh el",
      "c al",
      "m at",
      "g ic",
      "el ess",
      "as h",
      "al ready",
      "w atch",
      "ca re",
      "over whel",
      "is e",
      "po int",
      "want ed",
      "wor d",
      "e as",
      "d if",
      "sh ip",
      "s or",
      "app re",
      "a u",
      "f ace",
      "swe et",
      "g reat",
      "so l",
      "t end",
      "ex peri",
      "other s",
      "reas on",
      "ck ed",
      "ir r",
      "en s",
      "cho ol",
      "fe ct",
      "s chool",
      "b or",
      "to ward",
      "cer tain",
      "b less",
      "d one",
      "i b",
      "am p",
      "no thing",
      "en joy",
      "comp let",
      "s k",
      "ust ed",
      "every one",
      "we ird",
      "under stand",
      "p u",
      "d i",
      "an other",
      "gu ess",
      "x t",
      "wr ite",
      "mor ning",
      "k id",
      "o ld",
      "com ing",
      "f f",
      "ci al",
      "val u",
      "re nt",
      "sat is",
      "ra in",
      "ci ally",
      "hur t",
      "w ent",
      "ang ry",
      "co l",
      "of ten",
      "lo st",
      "complet ely",
      "a th",
      "ne xt",
      "st ressed",
      "fe ar",
      "sle ep",
      "wr ong",
      "ion ate",
      "p s",
      "e st",
      "al most",
      "v el",
      "did n",
      "u al",
      "p ic",
      "overwhel med",
      "m er",
      "me an",
      "g ent",
      "t re",
      "w el",
      "c as",
      "are nt",
      "bel ie",
      "thin king",
      "r u",
      "po sit",
      "el se",
      "is ed",
      "c es",
      "le ar",
      "id ent",
      "s ick",
      "may be",
      "in ter",
      "mis s",
      "tal k",
      "exc ited",
      "n or",
      "o b",
      "ust r",
      "ish ed",
      "vi e",
      "u mp",
      "on ce",
      "bless ed",
      "who le",
      "e ar",
      "e f",
      "de press",
      "f act",
      "d am",
      "ch ar",
      "b ur",
      "m el",
      "ho p",
      "h es",
      "str ange",
      "le s",
      "ation s",
      "y es",
      "l ed",
      "mon th",
      "p ast",
      "iz ed",
      "be st",
      "ou se",
      "loo king",
      "f ound",
      "wr iting",
      "sor ry",
      "ion s",
      "c y",
      "accept ed",
      "st er",
      "the tic",
      "iz e",
      "an x",
      "h ated",
      "es pe",
      "satis fied",
      "su l",
      "c ut",
      "espe cially",
      "com m",
      "m ust",
      "pro du",
      "am ed",
      "ti l",
      "ple ss",
      "su c",
      "gu il",
      "e mp",
      "c tive",
      "cl ass",
      "fr ustr",
      "c ur",
      "d en",
      "jo b",
      "ti red",
      "in v",
      "hel pless",
      "n u",
      "ar ing",
      "w ish",
      "ca red",
      "any one",
      "lat ely",
      "c reat",
      "par tic",
      "l on",
      "ou d",
      "h one",
      "partic ular",
      "f ar",
      "sto p",
      "f ree",
      "h ouse",
      "u ght",
      "ang er",
      "h our",
      "pro bab",
      "u su",
      "probab ly",
      "d r",
      "ic ious",
      "e ach",
      "ca me",
      "le ast",
      "sen se",
      "dif fe",
      "h on",
      "ro om",
      "su b",
      "con s",
      "ar y",
      "ver s",
      "toward s",
      "ig n",
      "belie ve",
      "v ely",
      "st up",
      "s ort",
      "to ld",
      "per fect",
      "sha re",
      "pass ionate",
      "un til",
      "tur n",
      "se t",
      "as k",
      "pe ace",
      "b ig",
      "stup id",
      "e mb",
      "lea ve",
      "c ri",
      "co ld",
      "st ud",
      "cou nt",
      "o int",
      "g i",
      "app oint",
      "se s",
      "ad d",
      "support ing",
      "ag itated",
      "be come",
      "at ive",
      "s light",
      "ra id",
      "gl ad",
      "hone st",
      "su per",
      "me ss",
      "that s",
      "was nt",
      "ra ged",
      "f ic",
      "pleas ant",
      "on d",
      "t ure",
      "start ing",
      "in side",
      "vi ous",
      "s cared",
      "ful ly",
      "st ay",
      "v en",
      "suc cess",
      "i ent",
      "a x",
      "ment s",
      "u e",
      "af raid",
      "li ve",
      "ho t",
      "ar r",
      "re spe",
      "m us",
      "i ma",
      "wor king",
      "hi gh",
      "in ess",
      "of fe",
      "say ing",
      "sur pr",
      "an tic",
      "comp l",
      "word s",
      "ou ch",
      "i ev",
      "frustr ated",
      "i ble",
      "ad m",
      "sit u",
      "w er",
      "ic ally",
      "appre ci",
      "a p",
      "in k",
      "tt en",
      "g ing",
      "m ing",
      "li ked",
      "co ol",
      "lu ck",
      "depress ed",
      "f re",
      "wonder ful",
      "ur ing",
      "ci ous",
      "ri st",
      "de fe",
      "gr ate",
      "m al",
      "bel o",
      "id ed",
      "an no",
      "he al",
      "itt ing",
      "rel ax",
      "rel ation",
      "he ar",
      "ib ly",
      "stu ff",
      "i o",
      "read ing",
      "grate ful",
      "ac tion",
      "mo ther",
      "sp end",
      "ach ing",
      "dis appoint",
      "ch ange",
      "tru ly",
      "anno y",
      "anx ious",
      "i th",
      "ag ed",
      "g ro",
      "ste ad",
      "kid s",
      "on es",
      "sa fe",
      "gener ous",
      "lo ving",
      "tr ust",
      "hor ri",
      "experi ence",
      "fin ally",
      "in sp",
      "slight ly",
      "happ en",
      "g er",
      "tre m",
      "beg in",
      "el e",
      "ent s",
      "ic al",
      "posit ive",
      "relation ship",
      "spe cial",
      "it al",
      "guil ty",
      "pl an",
      "pp ed",
      "wo ke",
      "c or",
      "in te",
      "fa ith",
      "mo ve",
      "w ar",
      "ex pe",
      "a h",
      "qu est",
      "p arent",
      "en ti",
      "wal k",
      "v ous",
      "con d",
      "v is",
      "can not",
      "emotion al",
      "ner vous",
      "ta king",
      "s imp",
      "particular ly",
      "e at",
      "bo th",
      "conf ident",
      "thank ful",
      "li c",
      "lon ely",
      "ri ous",
      "al low",
      "ga me",
      "c ry",
      "to ge",
      "fo od",
      "il ity",
      "in stead",
      "toge ther",
      "to t",
      "cont in",
      "ex trem",
      "pr oud",
      "f all",
      "un ity",
      "ing s",
      "z y",
      "diffe rent",
      "belo ved",
      "ex ha",
      "week s",
      "tot ally",
      "d uring",
      "extrem ely",
      "c ure",
      "f ine",
      "child ren",
      "h al",
      "i red",
      "ch rist",
      "b and",
      "po p",
      "al s",
      "b us",
      "re am",
      "i ther",
      "usu ally",
      "de fin",
      "b as",
      "m ad",
      "fun ny",
      "be at",
      "p ho",
      "je ct",
      "sy mp",
      "won t",
      "ist ic",
      "re sp",
      "un comfortable",
      "k new",
      "we en",
      "vie w",
      "bit ch",
      "ho ld",
      "su f",
      "d ou",
      "inte rest",
      "success ful",
      "i a",
      "list en",
      "bab y",
      "sto ry",
      "fu ll",
      "ide a",
      "in s",
      "tal king",
      "v ir",
      "in se",
      "for m",
      "any more",
      "pro ble",
      "c ed",
      "emb arr",
      "o h",
      "at ely",
      "inc red",
      "it ies",
      "n ice",
      "ima g",
      "l ing",
      "de ep",
      "cal m",
      "conf used",
      "embarr ass",
      "on s",
      "mat ter",
      "o pp",
      "us ing",
      "bre ak",
      "f ab",
      "ha vent",
      "p un",
      "disappoint ed",
      "c king",
      "dis g",
      "te mp",
      "po ss",
      "dec ided",
      "iev ed",
      "mis sed",
      "thank s",
      "d ri",
      "l ine",
      "ha ir",
      "ul t",
      "g n",
      "bo y",
      "long er",
      "exha usted",
      "adm it",
      "cont ro",
      "t ful",
      "horri ble",
      "does nt",
      "tr ou",
      "st ic",
      "g le",
      "thought s",
      "luck y",
      "a go",
      "come s",
      "k y",
      "gi ving",
      "re g",
      "hour s",
      "annoy ed",
      "st ant",
      "terri ble",
      "self ish",
      "m one",
      "id er",
      "bro ken",
      "f ol",
      "heal th",
      "bet ween",
      "p ur",
      "lo vely",
      "su n",
      "wo men",
      "wa ke",
      "situ ation",
      "ab sol",
      "tu red",
      "ag er",
      "se x",
      "tim id",
      "cut e",
      "surpr ised",
      "b ra",
      "t it",
      "creat ive",
      "see m",
      "act ed",
      "absol ut",
      "aw k",
      "me et",
      "st at",
      "w w",
      "month s",
      "e yes",
      "defin it",
      "p is",
      "ll ed",
      "ment al",
      "op en",
      "la me",
      "o t",
      "al ous",
      "pho to",
      "at ient",
      "awk ward",
      "g or",
      "ush ed",
      "ul ous",
      "vi le",
      "mo m",
      "iv en",
      "je alous",
      "gu y",
      "could nt",
      "ener gy",
      "d ream",
      "mone y",
      "int el",
      "mis er",
      "ig no",
      "tor tured",
      "clo se",
      "pp y",
      "car ing",
      "v ul",
      "cou ple",
      "pic ture",
      "know ing",
      "c our",
      "re gre",
      "e ither",
      "relax ed",
      "li ving",
      "aw ful",
      "s ound",
      "to ok",
      "d ra",
      "nu mb",
      "ar ti",
      "ar s",
      "itt y",
      "see ms",
      "l it",
      "g iven",
      "is su",
      "suf fer",
      "d iv",
      "y ing",
      "the red",
      "hop eless",
      "s ong",
      "mus ic",
      "to n",
      "lo l",
      "an o",
      "inse cure",
      "m as",
      "con v",
      "pp ing",
      "hal f",
      "kind a",
      "embarrass ed",
      "we ight",
      "us eless",
      "res ent",
      "wo man",
      "on t",
      "vul ner",
      "con ne",
      "insp ired",
      "pl ain",
      "see ing",
      "bit ter",
      "f ut",
      "dou b",
      "definit ely",
      "u ct",
      "some what",
      "emp ty",
      "de al",
      "ter min",
      "dist r",
      "absolut ely",
      "fut ure",
      "un sure",
      "au ti",
      "se cond",
      "friend ly",
      "un happy",
      "re je",
      "de v",
      "so ci",
      "ri ch",
      "contro l",
      "dec is",
      "incred ibly",
      "it able",
      "ri ed",
      "g ra",
      "d anger",
      "su m",
      "be auti",
      "so on",
      "produ ctive",
      "cons ider",
      "t ouch",
      "ad vent",
      "b lo",
      "in no",
      "du mb",
      "vulner able",
      "vi ol",
      "g row",
      "ens ive",
      "watch ing",
      "pre cious",
      "c us",
      "sm art",
      "f ant",
      "ti v",
      "bo thered",
      "cou raged",
      "f ill",
      "miser able",
      "sp ent",
      "s ou",
      "st al",
      "ge ous",
      "intel li",
      "d den",
      "ex act",
      "ast ic",
      "ac ter",
      "de termin",
      "in sul",
      "parent s",
      "min ut",
      "d a",
      "irr itated",
      "at er",
      "sp ir",
      "pis sed",
      "col le",
      "mi le",
      "ad ed",
      "fe st",
      "sk in",
      "is ol",
      "gent le",
      "fo ol",
      "char acter",
      "sm all",
      "worth less",
      "sa w",
      "bor ing",
      "d rain",
      "su dden",
      "ade qu",
      "ph ys",
      "d ir",
      "u gh",
      "fa il",
      "n at",
      "th ri",
      "ug ly",
      "st y",
      "sh itty",
      "run ning",
      "beauti ful",
      "ri es",
      "p ie",
      "respe cted",
      "le g",
      "com ed",
      "peace ful",
      "b er",
      "et y",
      "cu rious",
      "amaz ed",
      "faith ful",
      "terri fied",
      "offe nd",
      "hope ful",
      "s itting",
      "you n",
      "ru de",
      "wel come",
      "rel ieved",
      "pop ular",
      "since re",
      "pri vile",
      "w in",
      "disg usted",
      "al ong",
      "ar k",
      "imp ressed",
      "wh ate",
      "sh y",
      "determin ed",
      "experi en",
      "h us",
      "o c",
      "hu man",
      "ash amed",
      "un certain",
      "gor geous",
      "ump y",
      "you re",
      "to night",
      "inno cent",
      "i an",
      "a thetic",
      "long ing",
      "re mind",
      "ex press",
      "happ ened",
      "reje cted",
      "use ful",
      "whate ver",
      "valu ed",
      "sho cked",
      "v ic",
      "to p",
      "ha ha",
      "in adequ",
      "tri ed",
      "we ar",
      "rom antic",
      "th reat",
      "danger ous",
      "dis couraged",
      "accept able",
      "hus band",
      "ge tic",
      "dist ur",
      "or s",
      "d ened",
      "valu able",
      "hes it",
      "ch ang",
      "some how",
      "op tim",
      "fa ke",
      "home sick",
      "i re",
      "fa ir",
      "fort un",
      "par ano",
      "beg an",
      "conv inc",
      "resent ful",
      "b ar",
      "con stant",
      "pa thetic",
      "bra ve",
      "fol low",
      "al though",
      "str ug",
      "g one",
      "gr ou",
      "isol ated",
      "drain ed",
      "th ree",
      "del icious",
      "du ll",
      "cr ank",
      "irr itable",
      "th ar",
      "br ing",
      "tend er",
      "when ever",
      "intelli gent",
      "symp athetic",
      "need ed",
      "ener getic",
      "gr umpy",
      "pres sured",
      "expe ct",
      "ent ed",
      "sh it",
      "tru th",
      "joy ful",
      "worth while",
      "l ate",
      "as ked",
      "m id",
      "le thar",
      "e ager",
      "g gy",
      "us ion",
      "rel uct",
      "bor n",
      "optim istic",
      "crank y",
      "distr acted",
      "again st",
      "la ugh",
      "appre h",
      "in timid",
      "real ize",
      "suffer ing",
      "inadequ ate",
      "m ine",
      "o red",
      "cra ppy",
      "rest less",
      "simp ly",
      "f ig",
      "defe ated",
      "ser ious",
      "convinc ed",
      "reluct ant",
      "whe ther",
      "dir ty",
      "parano id",
      "i le",
      "dam n",
      "lo y",
      "fu cked",
      "lethar gic",
      "un i",
      "r ushed",
      "ig or",
      "honest ly",
      "s po",
      "offend ed",
      "imp atient",
      "bro ke",
      "bl ank",
      "no stal",
      "re sol",
      "st ep",
      "de pri",
      "ex plain",
      "st ate",
      "igno red",
      "bitch y",
      "privile ged",
      "cour se",
      "l ack",
      "gre ed",
      "an cho",
      "ye ster",
      "are d",
      "dis satisfied",
      "appreh ensive",
      "exact ly",
      "v ital",
      "cle ver",
      "re cent",
      "mi li",
      "pleas ed",
      "u de",
      "mu g",
      "fri ght",
      "bl ed",
      "div ine",
      "hesit ant",
      "a ir",
      "tru e",
      "insul ted",
      "mel ancho",
      "f it",
      "pr ay",
      "intimid ated",
      "is nt",
      "fr ont",
      "hon ored",
      "sha ky",
      "distur bed",
      "hu mili",
      "am er",
      "need y",
      "week end",
      "fu cking",
      "r id",
      "wel comed",
      "v ain",
      "wrong ed",
      "beat en",
      "it ion",
      "dev ast",
      "as sured",
      "e ating",
      "in ing",
      "qu ick",
      "greed y",
      "depri ved",
      "p ay",
      "do o",
      "fool ish",
      "s c",
      "o sed",
      "sen ti",
      "want ing",
      "ab used",
      "fant astic",
      "c li",
      "pun ished",
      "melancho ly",
      "le ad",
      "h un",
      "yester day",
      "bur dened",
      "ic ate",
      "ta ken",
      "opp ort",
      "gu ys",
      "viol ent",
      "b en",
      "e c",
      "or der",
      "gro ggy",
      "would nt",
      "person al",
      "te ach",
      "trou bled",
      "f ast",
      "g en",
      "thri lled",
      "emotion s",
      "ent er",
      "sh ort",
      "g loo",
      "heart broken",
      "lear n",
      "u m",
      "s mug",
      "humili ated",
      "d ro",
      "gloo my",
      "spir it",
      "it ch",
      "ro ss",
      "need s",
      "nostal gic",
      "doo med",
      "f il",
      "se en",
      "fright ened",
      "v ide",
      "mo od",
      "sum mer",
      "ap pe",
      "threat ened",
      "with in",
      "te am",
      "inv igor",
      "su peri",
      "ex p",
      "h ind",
      "r ound",
      "mel low",
      "resol ved",
      "s low",
      "supp or",
      "des p",
      "tell ing",
      "superi or",
      "di re",
      "fest ive",
      "devast ated",
      "invigor ated",
      "l ous",
      "ou nt",
      "p ick",
      "ro tten",
      "fa v",
      "j ud",
      "wa it",
      "un important",
      "reas sured",
      "contin ue",
      "re sul",
      "men tion",
      "ac es",
      "girl s",
      "w ater",
      "en vious",
      "h ar",
      "book s",
      "lous y",
      "j our",
      "get s",
      "there s",
      "ne ar",
      "ss ion",
      "look s",
      "po wer",
      "for ward",
      "w ed",
      "ur ous",
      "fab ulous",
      "tal ented",
      "j u",
      "ar ch",
      "or d",
      "fa ther",
      "real ized",
      "advent urous",
      "ad v",
      "nor mal",
      "ty pe",
      "des er",
      "f l",
      "s mile",
      "ex am",
      "ef fort",
      "a king",
      "grou p",
      "na ught",
      "ke t",
      "mess y",
      "out side",
      "ab ility",
      "ou red",
      "dam aged",
      "christ mas",
      "un grateful",
      "o s",
      "dis heart",
      "pro ject",
      "re ce",
      "senti mental",
      "naught y",
      "i er",
      "c ing",
      "sha ken",
      "pe tty",
      "sel ves",
      "moment s",
      "war m",
      "li ves",
      "sing le",
      "disheart ened",
      "cur rent",
      "ge st",
      "j aded",
      "hand s",
      "un welcome",
      "spe ak",
      "me t",
      "was n",
      "lat er",
      "tt ing",
      "t reat",
      "stat ic",
      "du e",
      "sty le",
      "call ed",
      "suppor tive",
      "imag ine",
      "youn g",
      "l and",
      "ou n",
      "hor ny",
      "at t",
      "cle ar",
      "be hind",
[...]
